<pad>	0
<s>	0
<sep>	0
</s>	0
<unk>	0
<0x00>	0
<0x01>	0
<0x02>	0
<0x03>	0
<0x04>	0
<0x05>	0
<0x06>	0
<0x07>	0
<0x08>	0
<0x09>	0
<0x0A>	0
<0x0B>	0
<0x0C>	0
<0x0D>	0
<0x0E>	0
<0x0F>	0
<0x10>	0
<0x11>	0
<0x12>	0
<0x13>	0
<0x14>	0
<0x15>	0
<0x16>	0
<0x17>	0
<0x18>	0
<0x19>	0
<0x1A>	0
<0x1B>	0
<0x1C>	0
<0x1D>	0
<0x1E>	0
<0x1F>	0
<0x20>	0
<0x21>	0
<0x22>	0
<0x23>	0
<0x24>	0
<0x25>	0
<0x26>	0
<0x27>	0
<0x28>	0
<0x29>	0
<0x2A>	0
<0x2B>	0
<0x2C>	0
<0x2D>	0
<0x2E>	0
<0x2F>	0
<0x30>	0
<0x31>	0
<0x32>	0
<0x33>	0
<0x34>	0
<0x35>	0
<0x36>	0
<0x37>	0
<0x38>	0
<0x39>	0
<0x3A>	0
<0x3B>	0
<0x3C>	0
<0x3D>	0
<0x3E>	0
<0x3F>	0
<0x40>	0
<0x41>	0
<0x42>	0
<0x43>	0
<0x44>	0
<0x45>	0
<0x46>	0
<0x47>	0
<0x48>	0
<0x49>	0
<0x4A>	0
<0x4B>	0
<0x4C>	0
<0x4D>	0
<0x4E>	0
<0x4F>	0
<0x50>	0
<0x51>	0
<0x52>	0
<0x53>	0
<0x54>	0
<0x55>	0
<0x56>	0
<0x57>	0
<0x58>	0
<0x59>	0
<0x5A>	0
<0x5B>	0
<0x5C>	0
<0x5D>	0
<0x5E>	0
<0x5F>	0
<0x60>	0
<0x61>	0
<0x62>	0
<0x63>	0
<0x64>	0
<0x65>	0
<0x66>	0
<0x67>	0
<0x68>	0
<0x69>	0
<0x6A>	0
<0x6B>	0
<0x6C>	0
<0x6D>	0
<0x6E>	0
<0x6F>	0
<0x70>	0
<0x71>	0
<0x72>	0
<0x73>	0
<0x74>	0
<0x75>	0
<0x76>	0
<0x77>	0
<0x78>	0
<0x79>	0
<0x7A>	0
<0x7B>	0
<0x7C>	0
<0x7D>	0
<0x7E>	0
<0x7F>	0
<0x80>	0
<0x81>	0
<0x82>	0
<0x83>	0
<0x84>	0
<0x85>	0
<0x86>	0
<0x87>	0
<0x88>	0
<0x89>	0
<0x8A>	0
<0x8B>	0
<0x8C>	0
<0x8D>	0
<0x8E>	0
<0x8F>	0
<0x90>	0
<0x91>	0
<0x92>	0
<0x93>	0
<0x94>	0
<0x95>	0
<0x96>	0
<0x97>	0
<0x98>	0
<0x99>	0
<0x9A>	0
<0x9B>	0
<0x9C>	0
<0x9D>	0
<0x9E>	0
<0x9F>	0
<0xA0>	0
<0xA1>	0
<0xA2>	0
<0xA3>	0
<0xA4>	0
<0xA5>	0
<0xA6>	0
<0xA7>	0
<0xA8>	0
<0xA9>	0
<0xAA>	0
<0xAB>	0
<0xAC>	0
<0xAD>	0
<0xAE>	0
<0xAF>	0
<0xB0>	0
<0xB1>	0
<0xB2>	0
<0xB3>	0
<0xB4>	0
<0xB5>	0
<0xB6>	0
<0xB7>	0
<0xB8>	0
<0xB9>	0
<0xBA>	0
<0xBB>	0
<0xBC>	0
<0xBD>	0
<0xBE>	0
<0xBF>	0
<0xC0>	0
<0xC1>	0
<0xC2>	0
<0xC3>	0
<0xC4>	0
<0xC5>	0
<0xC6>	0
<0xC7>	0
<0xC8>	0
<0xC9>	0
<0xCA>	0
<0xCB>	0
<0xCC>	0
<0xCD>	0
<0xCE>	0
<0xCF>	0
<0xD0>	0
<0xD1>	0
<0xD2>	0
<0xD3>	0
<0xD4>	0
<0xD5>	0
<0xD6>	0
<0xD7>	0
<0xD8>	0
<0xD9>	0
<0xDA>	0
<0xDB>	0
<0xDC>	0
<0xDD>	0
<0xDE>	0
<0xDF>	0
<0xE0>	0
<0xE1>	0
<0xE2>	0
<0xE3>	0
<0xE4>	0
<0xE5>	0
<0xE6>	0
<0xE7>	0
<0xE8>	0
<0xE9>	0
<0xEA>	0
<0xEB>	0
<0xEC>	0
<0xED>	0
<0xEE>	0
<0xEF>	0
<0xF0>	0
<0xF1>	0
<0xF2>	0
<0xF3>	0
<0xF4>	0
<0xF5>	0
<0xF6>	0
<0xF7>	0
<0xF8>	0
<0xF9>	0
<0xFA>	0
<0xFB>	0
<0xFC>	0
<0xFD>	0
<0xFE>	0
<0xFF>	0
▁	-1.78313
.	-3.3093
▁그	-4.40422
▁거	-4.60182
?	-4.70906
▁뭐	-4.81091
▁어	-4.88501
도	-4.90692
▁그런	-5.00406
▁좀	-5.06702
▁이제	-5.12054
이	-5.19739
가	-5.20098
▁근데	-5.24433
을	-5.25646
▁안	-5.29179
▁그래서	-5.31759
는	-5.33667
▁많이	-5.35647
에	-5.4911
▁게	-5.52829
▁나는	-5.56263
▁또	-5.56512
▁아	-5.60696
▁내가	-5.6221
▁같아	-5.70155
▁수	-5.71272
은	-5.77405
▁그냥	-5.77597
를	-5.7774
▁이런	-5.78428
▁가지고	-5.78931
고	-5.79892
▁때	-5.80345
▁있는	-5.82047
▁해	-5.82973
▁이렇게	-5.84863
지	-5.90462
▁너무	-5.91816
▁하고	-5.93164
▁더	-5.93557
▁다	-5.94583
▁잘	-5.96367
▁같은	-5.99849
▁막	-6.00543
▁되게	-6.03653
~	-6.04074
만	-6.07185
▁한	-6.07236
▁그렇게	-6.07383
▁그리고	-6.15454
▁하는	-6.15692
나	-6.16145
▁지금	-6.1738
▁인제	-6.19333
▁진짜	-6.25387
의	-6.26128
▁음	-6.28174
▁우리	-6.29728
▁약간	-6.30853
하고	-6.36405
로	-6.40214
▁응	-6.40434
▁것	-6.43398
▁그러니까	-6.4346
▁그게	-6.44976
▁나도	-6.45058
▁1	-6.46942
▁있어	-6.48756
▁저는	-6.48932
▁보니까	-6.49618
▁할	-6.54376
▁것도	-6.55376
▁있고	-6.56358
▁내	-6.56623
▁때문에	-6.56756
▁어떤	-6.57641
▁생각을	-6.57785
에서	-6.58671
▁못	-6.58916
다	-6.59462
요	-6.60197
▁이	-6.63763
▁걸	-6.6382
▁거야	-6.66914
▁보고	-6.67013
▁같이	-6.67494
▁다른	-6.70057
▁좋은	-6.70983
▁어떻게	-6.71052
▁정말	-6.72538
▁그래	-6.72844
▁제가	-6.72864
서	-6.73195
▁name	-6.75803
▁나	-6.76164
▁조금	-6.76621
▁그때	-6.7848
▁이게	-6.78633
▁해서	-6.79038
▁그거	-6.79568
하는	-6.80635
으로	-6.80822
▁있는데	-6.81454
한	-6.81461
기	-6.81555
어	-6.84972
야	-6.85798
▁그래도	-6.86108
▁사실	-6.88391
▁그러면	-6.88842
라고	-6.88887
▁맞아	-6.88963
인	-6.89229
▁혹시	-6.89736
▁난	-6.90304
▁한번	-6.90698
▁생각이	-6.91193
▁같아요	-6.92752
대	-6.95187
▁건	-6.95977
할	-6.98581
▁되는	-6.98772
▁보면	-6.99813
게	-6.99996
▁뭔가	-7.0073
▁생각해	-7.01026
▁거는	-7.01316
▁우리가	-7.02335
이나	-7.04203
▁계속	-7.0432
해	-7.06631
▁너는	-7.06872
▁해야	-7.08886
▁2	-7.09786
▁가서	-7.11436
▁때는	-7.12537
▁굉장히	-7.13059
▁요즘	-7.13576
▁저	-7.14866
▁사람들이	-7.16327
▁사람이	-7.17255
▁본	-7.17473
▁제일	-7.18676
▁엄청	-7.18725
▁사	-7.18881
▁정도	-7.19275
▁네	-7.20029
잖아	-7.20473
▁그럼	-7.20794
랑	-7.21324
들이	-7.22053
▁하는데	-7.22995
▁아니	-7.23265
▁아니면	-7.23626
라는	-7.24088
▁먹고	-7.24846
▁될	-7.26228
년	-7.27594
▁되고	-7.28885
▁일단	-7.29843
1	-7.3039
▁왜	-7.31422
면	-7.31711
▁대해서	-7.32321
▁하면	-7.33219
▁같은데	-7.34894
▁3	-7.35054
▁쪼끔	-7.35659
▁저도	-7.35921
들	-7.36568
는데	-7.38298
▁그렇지	-7.38444
▁했는데	-7.39007
▁없는	-7.39565
진	-7.39946
▁거기	-7.39974
라	-7.41531
▁싶은	-7.41844
▁돼	-7.42073
니까	-7.42795
▁좋아하는	-7.43227
▁거의	-7.43808
▁가는	-7.44008
▁있잖아	-7.44232
▁참	-7.44289
▁보면은	-7.44741
▁거를	-7.44847
과	-7.45289
긴	-7.45935
▁같고	-7.4597
▁있을	-7.46657
▁수도	-7.46663
해서	-7.47854
데	-7.48402
▁몇	-7.48449
▁있어서	-7.48631
▁그걸	-7.49336
일	-7.49449
▁딱	-7.49991
▁가장	-7.50799
▁갈	-7.51053
▁많은	-7.51445
까지	-7.51879
▁보는	-7.5372
▁가고	-7.54236
▁들어	-7.543
시	-7.54714
▁아무래도	-7.56321
▁너	-7.56376
아	-7.56762
이랑	-7.59573
▁않을까	-7.60279
▁줄	-7.60545
▁별로	-7.6065
▁네가	-7.61425
▁데	-7.61633
▁거지	-7.61902
▁싶어	-7.6208
▁먹는	-7.62122
하게	-7.62926
다고	-7.63874
▁갖고	-7.64075
▁다시	-7.64389
▁큰	-7.64937
▁볼	-7.66093
▁하나	-7.66425
▁사람	-7.67495
인데	-7.67684
▁한데	-7.67995
자	-7.68389
단	-7.69049
▁항상	-7.69744
▁만약에	-7.69925
▁어느	-7.70381
2	-7.70812
▁그거를	-7.70984
리	-7.71101
▁없어	-7.71275
▁봐	-7.71374
▁꼭	-7.7223
▁제	-7.72477
▁살	-7.73075
▁하니까	-7.73104
▁전에	-7.73217
▁원	-7.73599
▁그것도	-7.73659
▁그런데	-7.73678
▁대한	-7.74067
▁전	-7.74374
▁아니라	-7.74851
번	-7.75137
▁얘기를	-7.75318
거나	-7.7562
▁있지	-7.75702
거든	-7.76243
던	-7.76477
▁아까	-7.77495
▁중에	-7.77589
▁솔직히	-7.78662
▁여러	-7.78708
▁쪼금	-7.79145
▁적이	-7.7974
▁왜냐하면	-7.80858
▁그러면은	-7.80919
▁자기	-7.81355
▁하면서	-7.81432
▁집	-7.81491
이라고	-7.81604
사	-7.82042
▁있어요	-7.82307
▁거기서	-7.82935
▁지금은	-7.83443
▁되는데	-7.83764
▁최근에	-7.84812
네	-7.85282
▁생각	-7.86024
▁친구	-7.8665
▁주고	-7.86705
▁그거는	-7.86946
▁하지	-7.88252
적인	-7.89491
스	-7.89902
▁번	-7.90319
▁일	-7.90377
▁집에	-7.90744
▁기억이	-7.90985
▁일을	-7.91762
▁있으니까	-7.92048
▁10	-7.92654
▁나중에	-7.92967
더라고	-7.93124
▁원래	-7.93169
▁않고	-7.93205
▁주는	-7.93376
▁적	-7.93507
▁하	-7.93557
▁말	-7.93711
▁노래	-7.94104
▁예	-7.94133
▁알고	-7.94488
▁요즘에	-7.94603
▁오히려	-7.95123
처럼	-7.95278
▁하면은	-7.95381
▁하지만	-7.95445
▁없고	-7.9551
▁물론	-7.95989
▁여행	-7.96072
들을	-7.96086
▁아니고	-7.9687
▁보통	-7.96898
▁혼자	-7.96919
▁사는	-7.97272
▁좋아	-7.97454
▁두	-7.9772
▁있으면	-7.97959
▁봤는데	-7.9819
▁가지	-7.99567
보다는	-7.99603
▁영화	-7.99657
▁자주	-7.99698
▁아직	-8.00051
▁있다고	-8.00111
▁무슨	-8.00523
▁저희	-8.01049
▁이거	-8.01458
▁말이야	-8.0174
▁되지	-8.02056
기도	-8.02385
▁해도	-8.02613
▁어디	-8.0285
▁5	-8.04148
▁4	-8.04547
보다	-8.0465
적으로	-8.04746
▁좋을	-8.05599
▁타고	-8.05653
와	-8.05839
▁말고	-8.06207
▁건데	-8.06297
▁맞는	-8.06385
니	-8.064
▁오	-8.06753
▁경우는	-8.07127
▁학교	-8.07544
▁엄마	-8.07827
▁그건	-8.08214
▁때도	-8.08646
▁아마	-8.08697
▁경우에는	-8.09214
▁하더라고	-8.09306
▁가면	-8.09346
▁친구가	-8.09875
▁집에서	-8.09918
▁않아	-8.10057
분	-8.10181
하지	-8.10687
이라는	-8.11041
원	-8.11463
▁갔다	-8.11579
▁저기	-8.12281
▁거예요	-8.12868
▁되면	-8.13023
▁얘기	-8.1319
▁된	-8.13274
▁시간이	-8.13778
주	-8.13961
▁날	-8.14221
▁주	-8.14303
▁아니야	-8.14317
▁사람들	-8.14532
▁같아서	-8.15664
지만	-8.15666
▁나오는	-8.15814
▁먹어	-8.1584
▁일이	-8.16368
▁있다	-8.1653
▁식으로	-8.1673
▁바로	-8.16828
부터	-8.17032
▁자기가	-8.17281
▁그럴	-8.17329
▁시간	-8.17721
▁얼마	-8.17899
▁보	-8.17952
▁처음	-8.18526
수	-8.18757
▁먹을	-8.19244
▁이번에	-8.2104
▁확실히	-8.21056
▁수가	-8.21235
▁돈을	-8.21507
▁서로	-8.21944
▁애들이	-8.21953
▁그다음에	-8.22274
지는	-8.23783
▁들어서	-8.24059
질	-8.24162
▁했던	-8.24282
드	-8.24556
▁어쨌든	-8.2464
▁열심히	-8.24884
▁하다	-8.24913
▁보면서	-8.2496
다가	-8.25125
▁개	-8.25506
▁위해서	-8.25842
들은	-8.25997
▁거고	-8.26181
▁코로나	-8.26722
▁된다고	-8.26882
▁돈	-8.26899
3	-8.26923
▁있었는데	-8.27516
▁예전에	-8.27642
한테	-8.27667
▁부분이	-8.27682
▁갑자기	-8.28526
▁간	-8.28653
장	-8.28682
▁아니면은	-8.2875
▁걸로	-8.29494
▁와	-8.29606
▁있습니다	-8.29621
▁거에	-8.30047
▁먼저	-8.30297
▁거기에	-8.30924
거든요	-8.31266
하면	-8.31376
▁애들	-8.31533
▁타	-8.31549
▁많고	-8.31671
▁되니까	-8.31845
학년	-8.32057
하면서	-8.32326
면은	-8.32451
▁20	-8.32902
신	-8.32977
▁맨날	-8.33088
▁나서	-8.33148
▁특히	-8.33372
▁요즘은	-8.33549
▁사고	-8.33556
▁우리는	-8.33616
▁고등학교	-8.33618
▁것이	-8.33658
▁그렇고	-8.3373
▁엄마가	-8.33867
▁있거든	-8.34463
▁주로	-8.35391
▁운동	-8.35648
치	-8.35701
인가	-8.36428
으면	-8.3655
▁봤을	-8.37211
▁여자	-8.37294
화	-8.37513
▁말을	-8.3767
▁봤어	-8.37782
가지고	-8.38041
면서	-8.38084
▁아예	-8.38086
▁요새	-8.38242
구	-8.38372
▁바	-8.38374
든	-8.38605
▁예를	-8.389
▁크게	-8.38984
▁오래	-8.39357
▁빨리	-8.39359
▁생각은	-8.39441
▁직접	-8.3974
▁여행을	-8.39741
▁쪽으로	-8.39777
▁생각하고	-8.39932
부	-8.40031
▁하게	-8.40044
▁반	-8.40229
▁모든	-8.40423
구나	-8.40757
월	-8.41016
▁없이	-8.42018
▁언니	-8.42103
▁느낌이	-8.42241
▁따로	-8.42356
▁차	-8.4256
더라고요	-8.42595
▁되나	-8.42623
▁아이	-8.42741
▁옛날에	-8.4356
▁비	-8.43705
죠	-8.43783
▁것들이	-8.44072
▁시	-8.44199
▁요즘에는	-8.44543
상	-8.44625
▁와서	-8.44679
▁사람들은	-8.45053
▁들고	-8.45384
▁운동을	-8.45498
박	-8.45702
▁아닌	-8.45728
▁음식	-8.45745
▁굳이	-8.45967
잖아요	-8.45989
했던	-8.46002
▁뭘	-8.46222
▁좋고	-8.46528
▁알	-8.46538
▁좋아해	-8.46698
▁했어	-8.46889
▁나한테	-8.47292
▁어렸을	-8.47441
▁것처럼	-8.47446
▁일단은	-8.47573
▁기억에	-8.47764
▁생각도	-8.4788
▁않는	-8.48081
▁아주	-8.48378
▁나이가	-8.48435
▁다음에	-8.48662
으니까	-8.48937
▁싶은데	-8.48964
명	-8.49003
트	-8.49379
▁있지만	-8.49586
해야	-8.50106
▁생각하는	-8.50693
까	-8.50799
▁돈이	-8.50917
하	-8.50944
선	-8.51003
여	-8.51047
▁세	-8.51069
▁남자	-8.51145
▁강아지	-8.51196
▁그러고	-8.51298
▁버스	-8.51377
▁자	-8.51657
▁무조건	-8.52204
▁완전	-8.52345
▁좋지	-8.52416
동	-8.52422
개	-8.52508
▁않은	-8.52713
성	-8.52972
▁돼서	-8.54022
▁산	-8.54083
▁같습니다	-8.5505
들도	-8.55076
다는	-8.5516
▁알아	-8.55282
적	-8.55386
하기	-8.55401
▁놓고	-8.55528
▁처음에	-8.55584
▁결혼	-8.55844
라든지	-8.5604
비	-8.56111
▁딱히	-8.56199
▁많아	-8.56386
차	-8.57559
▁건강	-8.57905
된	-8.58055
▁마음이	-8.5809
▁회사	-8.58126
▁문제가	-8.58817
▁옛날	-8.58956
시간	-8.59381
▁나이	-8.59521
려고	-8.59573
▁여기	-8.59648
▁정도로	-8.59651
▁만들어	-8.59806
산	-8.60201
▁오늘	-8.60307
▁6	-8.60467
▁온	-8.60534
▁30	-8.60721
었는데	-8.61598
에는	-8.62132
▁무	-8.62167
밖에	-8.62211
▁생각보다	-8.62369
▁드라마	-8.62421
▁자체가	-8.62482
미	-8.62927
▁사람은	-8.63053
▁거라고	-8.63146
▁없는데	-8.63157
▁결혼을	-8.6332
▁좋다고	-8.63565
엔	-8.63597
▁해요	-8.63664
▁듣고	-8.6372
▁경우가	-8.63964
▁거잖아	-8.64009
제	-8.6448
▁된다	-8.64937
▁사람을	-8.65166
▁가야	-8.65184
▁그때는	-8.65295
▁쓰는	-8.65457
▁살고	-8.65573
정	-8.65592
▁쓰고	-8.65808
▁우리나라	-8.65975
▁밥	-8.66036
▁중요한	-8.66172
오	-8.66381
어서	-8.6652
▁훨씬	-8.66557
▁친구들	-8.6678
▁둘	-8.66795
▁갔을	-8.66948
▁가족	-8.67241
▁중	-8.67281
▁일본	-8.6736
마	-8.67362
▁적은	-8.67438
▁정	-8.67486
▁다들	-8.67509
▁없어서	-8.67516
▁재밌게	-8.67541
우	-8.67732
▁친구들이	-8.67749
▁경우도	-8.68319
▁같긴	-8.68417
더라	-8.68871
▁공부를	-8.68929
▁유	-8.6895
▁자꾸	-8.68953
▁않나	-8.69318
되는	-8.69356
보	-8.69787
전	-8.69812
▁동안	-8.69813
▁고양이	-8.70138
▁뭐야	-8.70199
▁때부터	-8.70399
러	-8.70416
▁너도	-8.70512
▁관심이	-8.70968
▁있을까	-8.70971
▁앞으로	-8.71113
▁힘든	-8.71137
▁부	-8.71159
▁옷	-8.7143
▁괜찮은	-8.71636
▁나온	-8.72151
▁좋아하고	-8.72196
▁물	-8.72295
살	-8.72419
라도	-8.72455
▁성격이	-8.72521
▁얼마나	-8.72666
실	-8.72856
▁가면은	-8.72857
▁나랑	-8.72907
▁여	-8.73105
▁있더라고	-8.73112
▁그러다	-8.73841
▁때가	-8.74465
▁사람도	-8.745
▁이상	-8.74521
▁말이	-8.74788
▁그치	-8.75065
▁음악	-8.75231
▁받고	-8.7534
▁오는	-8.75542
▁중학교	-8.75548
▁애	-8.75731
▁것들을	-8.75765
▁한국	-8.75816
▁피	-8.76075
▁그것이	-8.76264
▁가끔	-8.77081
▁있기	-8.77243
▁노래를	-8.77271
▁있긴	-8.77446
▁서울	-8.77672
▁했었는데	-8.77951
물	-8.78067
▁하잖아	-8.78243
▁챙겨	-8.78386
▁싶다	-8.78436
▁상황이	-8.78455
▁되면은	-8.78543
▁게임	-8.78562
▁아는	-8.78701
세	-8.7882
▁어때	-8.78829
소	-8.78902
▁봤던	-8.79106
▁맛있는	-8.7928
▁남는	-8.79427
▁봐야	-8.79462
▁하거든	-8.79723
이고	-8.79815
▁누가	-8.80106
▁올	-8.80408
▁있었던	-8.80473
이야	-8.8051
▁거니까	-8.80891
▁통해서	-8.81088
▁모르겠는데	-8.81157
▁점점	-8.81215
▁갔는데	-8.81303
란	-8.81373
▁당연히	-8.81452
당	-8.81748
▁했을	-8.81964
▁중에서	-8.82442
▁써	-8.82654
라서	-8.82986
▁언제	-8.83027
▁마	-8.83418
▁사실은	-8.83505
▁주변에	-8.83638
▁한다고	-8.8407
▁가게	-8.84241
▁경험이	-8.84416
▁나와	-8.84637
▁좋겠어	-8.84793
▁모르겠어	-8.84994
▁힘들	-8.85048
▁영화를	-8.85079
▁키우고	-8.85103
래	-8.85252
▁시간을	-8.85645
▁쪽	-8.85771
려	-8.85781
이라든지	-8.86028
▁느낌	-8.86477
▁있었어	-8.86642
▁있잖아요	-8.86768
▁키우는	-8.86895
▁문제	-8.86946
냐	-8.86969
▁생활	-8.86977
거	-8.87058
▁대해서는	-8.87287
▁싶고	-8.87314
▁어릴	-8.87631
어요	-8.87702
▁하더라고요	-8.87805
▁선생님	-8.88043
▁지금도	-8.88078
▁것을	-8.88078
레	-8.88159
지도	-8.88342
라든가	-8.88867
▁하기	-8.88966
▁살짝	-8.89039
▁새로운	-8.89378
▁따라	-8.8948
하다	-8.89492
▁모	-8.89607
▁팔	-8.89688
방	-8.89763
▁달	-8.89849
▁많아서	-8.9
▁텐데	-8.90045
기는	-8.90457
▁하루	-8.90732
▁대학교	-8.90779
▁약	-8.9088
▁사람들도	-8.90989
▁있다는	-8.91055
겠지	-8.91195
▁초등학교	-8.91197
▁건지	-8.91229
▁음식을	-8.91539
▁있어야	-8.91554
▁알바	-8.91721
▁배	-8.91854
집	-8.91988
달	-8.92034
▁입	-8.92187
▁실제로	-8.92288
▁먹으면	-8.92325
▁명	-8.92342
▁100	-8.92541
▁받는	-8.92567
▁저번에	-8.92609
▁다음	-8.92862
▁좋았던	-8.92971
음	-8.93367
▁듣는	-8.936
▁공	-8.93628
▁없을	-8.93738
기가	-8.94009
▁넌	-8.94011
식	-8.94086
▁곳이	-8.94234
▁이거는	-8.94425
▁때마다	-8.9449
▁어차피	-8.9464
▁뭐지	-8.94643
▁같기도	-8.94645
▁앞에	-8.94778
▁필요한	-8.94974
▁받아	-8.95121
▁다니고	-8.95232
▁부분에	-8.95326
습니다	-8.95513
▁나와서	-8.95533
▁없으니까	-8.9556
에서는	-8.95621
▁맛이	-8.95623
▁안에	-8.95729
▁선물	-8.95841
▁시켜	-8.96159
▁많은데	-8.96221
▁그거에	-8.96399
▁덜	-8.96442
▁나오고	-8.96602
▁구	-8.9677
▁작은	-8.96814
마다	-8.96902
▁따라서	-8.96983
▁아닌데	-8.97055
4	-8.97448
크	-8.97534
피	-8.97715
▁유튜브	-8.97738
▁신	-8.97958
▁엄마는	-8.97958
▁쪽에	-8.98207
▁불	-8.98502
생	-8.98511
▁찾아	-8.98931
▁데리고	-8.98944
▁친구들이랑	-8.99022
▁열	-8.99316
점	-8.9953
▁젊은	-8.99758
▁것은	-8.99815
▁있게	-9.00112
▁어쩔	-9.00155
▁말하는	-9.00186
▁방	-9.00218
재	-9.00255
▁소	-9.00452
▁처음에는	-9.00778
▁뭐가	-9.00804
▁7	-9.00898
▁마음에	-9.00926
▁맞지	-9.0094
▁아빠	-9.00985
▁장	-9.01049
▁하다가	-9.01496
▁배우	-9.01538
▁들어가	-9.01792
▁시시	-9.01961
▁아닌가	-9.023
▁것들	-9.02332
에도	-9.02413
▁좋아하는데	-9.0243
체	-9.02504
길	-9.02619
이가	-9.02638
▁선생님이	-9.02705
▁순	-9.02758
▁해외	-9.03069
▁유명한	-9.03075
▁말한	-9.03079
▁하려고	-9.03125
▁쓸	-9.03171
▁아파트	-9.03242
프로	-9.03333
▁좋은데	-9.03345
이라	-9.0348
이니까	-9.03513
▁이번	-9.03645
▁상	-9.03669
▁그렇구나	-9.04074
▁다니는	-9.04208
▁데가	-9.04222
▁비슷한	-9.04285
▁드는	-9.0435
▁살아	-9.04373
었어	-9.04419
▁이유가	-9.0476
▁남	-9.04783
▁집이	-9.05282
▁사진	-9.05667
▁있거든요	-9.05712
▁맞아요	-9.05719
▁공부	-9.05747
조	-9.058
▁같더라고	-9.05804
▁같다	-9.05927
▁싫어	-9.06031
▁힘들어	-9.06042
▁않을	-9.06077
▁정도는	-9.06123
파	-9.06184
겠다	-9.06202
▁보여	-9.06465
▁있	-9.06536
▁이걸	-9.06808
▁했잖아	-9.06872
▁쓰	-9.06975
▁다닐	-9.07025
르	-9.07133
▁그러면서	-9.07369
대로	-9.07454
▁쉽게	-9.07515
▁입고	-9.07532
직	-9.07986
▁잠깐	-9.08083
▁아침에	-9.08236
프	-9.08347
계	-9.08349
▁생활을	-9.08451
▁술	-9.08476
▁어제	-9.08541
▁몰라	-9.08549
▁나를	-9.08602
▁했고	-9.08643
호	-9.08664
▁놀러	-9.08709
디	-9.0877
▁8	-9.08818
이는	-9.08884
▁티브이	-9.08955
▁도움이	-9.0904
▁되잖아	-9.09206
져	-9.09656
▁없다고	-9.09718
▁친구랑	-9.09865
▁이야기	-9.09934
▁조	-9.09997
▁제주도	-9.10028
티	-9.10072
▁좋아해서	-9.10184
▁있는지	-9.10271
▁옆에	-9.10434
▁제대로	-9.10451
▁새	-9.10462
었던	-9.10499
▁아빠가	-9.10506
▁옷을	-9.10641
▁뭐라	-9.10652
반	-9.10783
▁싶어서	-9.10879
천	-9.10917
▁경험	-9.10992
▁지하철	-9.11125
무	-9.11279
▁줘야	-9.11433
▁전혀	-9.1148
히	-9.1153
문	-9.1173
▁하긴	-9.11746
개월	-9.11839
했을	-9.11849
▁이미	-9.11863
모	-9.11872
▁워낙	-9.12148
▁발	-9.12317
▁축구	-9.12351
▁예전에는	-9.12576
▁차라리	-9.12803
▁기억	-9.13007
▁생	-9.13043
▁추천해	-9.13046
▁보러	-9.13394
▁직장	-9.13763
▁어려운	-9.13858
▁오고	-9.14049
▁편이야	-9.14154
▁부산	-9.14157
회	-9.1418
▁애가	-9.1421
▁미	-9.14358
▁미국	-9.14403
▁그랬는데	-9.14416
▁대학	-9.14499
▁다양한	-9.14649
▁걔가	-9.14681
▁옛날에는	-9.14868
▁키워	-9.14952
5	-9.15156
▁스	-9.15218
▁없지	-9.15273
▁있나	-9.15299
▁그것	-9.15592
▁개인적으로	-9.15601
간	-9.15626
▁언니는	-9.15657
급	-9.15697
▁데서	-9.15776
▁원하는	-9.15784
▁없잖아	-9.16267
▁없다	-9.16298
▁아이돌	-9.16335
▁둘이	-9.16393
▁언니가	-9.16588
학	-9.16912
▁밖에	-9.16914
에다가	-9.17031
▁이거를	-9.17087
주고	-9.1723
▁분들이	-9.1736
권	-9.1769
이다	-9.17712
▁주변	-9.17972
▁누구	-9.18042
▁좋겠다	-9.18063
▁합니다	-9.18506
▁집을	-9.1857
▁강	-9.18668
▁기분이	-9.18795
▁충분히	-9.18855
▁수업	-9.18946
▁대부분	-9.18965
▁다이어트	-9.19024
▁눈	-9.19168
▁재	-9.19179
던데	-9.19236
한다고	-9.19237
▁너희	-9.19247
▁현재	-9.19413
▁벌	-9.19488
두	-9.19519
▁갔던	-9.19531
▁애들은	-9.19539
▁많잖아	-9.19652
루	-9.19668
▁첫	-9.1988
지고	-9.19928
▁스포츠	-9.20007
▁50	-9.20066
▁만한	-9.20242
▁몸이	-9.20535
▁나의	-9.2059
▁주식	-9.20693
▁일반	-9.20704
인지	-9.20776
▁강아지를	-9.20986
▁가격이	-9.21154
▁요새는	-9.21212
▁거기는	-9.21272
▁준	-9.2148
▁있으신가요	-9.21486
▁아무리	-9.21666
타	-9.21697
위	-9.2172
하니까	-9.21727
형	-9.21908
▁보내	-9.21994
▁나가	-9.22005
▁브랜드	-9.2203
▁고민	-9.22246
▁보지	-9.22365
▁학교에서	-9.22503
▁봐도	-9.22522
▁여름	-9.22581
지가	-9.22604
▁곳	-9.22615
이라든가	-9.22624
▁오빠	-9.22694
▁먹	-9.22857
▁봐서	-9.22914
에게	-9.22988
민	-9.23045
하거나	-9.2305
▁괜찮을	-9.23212
▁시간에	-9.23299
▁사서	-9.23419
▁나가서	-9.23578
▁한다	-9.23657
▁생각하는데	-9.23722
였는데	-9.23779
터	-9.23845
했는데	-9.23884
연	-9.23914
▁만나	-9.23927
▁있었고	-9.24
▁그래가지고	-9.24001
▁신경	-9.24065
▁아무튼	-9.2418
주는	-9.24227
울	-9.24238
국	-9.24272
▁있으면은	-9.24299
▁줘	-9.24336
▁될지	-9.24578
라면	-9.24618
중	-9.24647
내	-9.24698
관	-9.24765
입니다	-9.24893
▁요리	-9.25261
▁좋다	-9.25333
▁나는데	-9.25655
▁밥을	-9.25682
▁놀	-9.25721
▁만드는	-9.25733
▁걔	-9.26108
▁연애	-9.2627
▁김	-9.26322
▁점이	-9.26334
▁모르는	-9.26611
▁취미	-9.26869
▁고기	-9.26879
▁투자	-9.26879
▁됐는데	-9.26919
▁막상	-9.2694
▁할머니	-9.26982
린	-9.27032
종	-9.27197
▁보게	-9.27224
▁그만큼	-9.2725
▁아이들이	-9.27344
▁우	-9.27446
▁에이아이	-9.27458
▁준비	-9.27516
릴	-9.276
▁차이가	-9.27952
▁카페	-9.27973
▁되	-9.28016
▁노	-9.2802
▁경	-9.28071
씩	-9.28072
▁알려	-9.28115
▁대로	-9.28119
▁9	-9.28122
안	-9.28265
▁파	-9.28325
▁음식이	-9.28437
▁에이아이가	-9.28512
▁예능	-9.28521
▁아직도	-9.28531
▁시험	-9.28535
▁새로	-9.28549
▁그렇다고	-9.28684
날	-9.28696
▁나라	-9.28822
▁재밌는	-9.28846
▁성격	-9.28883
▁쇼핑	-9.29002
▁상당히	-9.29076
에서도	-9.2913
▁활동	-9.29149
▁영어	-9.29695
▁딸	-9.29769
▁나쁘지	-9.29801
▁좋게	-9.29816
▁그런지	-9.30022
유	-9.3006
용	-9.30065
▁함께	-9.30166
▁건가	-9.30289
▁경우	-9.30454
▁사회	-9.30491
▁데는	-9.30508
▁친한	-9.30579
▁되더라고	-9.30668
▁노래가	-9.31119
▁된다면	-9.31365
등	-9.31401
▁우리도	-9.31457
▁선생님은	-9.3147
했어	-9.31514
▁반대	-9.31587
그	-9.31681
하면은	-9.31772
▁사람의	-9.31838
지를	-9.31932
▁교육	-9.31959
▁않아서	-9.32037
▁겨울	-9.32099
▁아르바이트	-9.32268
▁분	-9.32514
▁비싼	-9.32542
▁자기는	-9.32614
▁이사	-9.32654
까지는	-9.32753
▁이야기를	-9.3281
▁연	-9.32876
바	-9.32915
▁병원	-9.33221
▁보자	-9.33299
▁친구는	-9.33477
▁이건	-9.33493
▁선	-9.33718
▁타는	-9.33797
▁동네	-9.33832
▁취업	-9.33847
억	-9.33858
▁40	-9.33873
▁책	-9.33874
▁프로그램	-9.33992
▁되겠다	-9.33997
▁분이	-9.34405
▁동물	-9.34666
▁거기가	-9.34827
▁선물을	-9.34853
▁파는	-9.35044
▁늘	-9.35104
▁관련된	-9.35467
▁중국	-9.35488
▁아무	-9.355
▁동	-9.35506
▁있더라고요	-9.3553
본	-9.35543
이라서	-9.35561
포	-9.35618
▁모르겠지만	-9.35673
▁많지	-9.35871
으	-9.35925
▁국내	-9.36137
▁잘하는	-9.36241
▁기회가	-9.36345
▁위주로	-9.36452
는지	-9.3649
금	-9.36571
▁아닐까	-9.36633
▁편하게	-9.36709
▁관심	-9.36965
▁온라인	-9.36976
▁넣어	-9.37001
▁왔다	-9.37102
▁인해서	-9.37131
▁절대	-9.37135
▁배달	-9.37142
▁생각하면	-9.37327
▁그대로	-9.37387
▁걱정이	-9.37468
▁나고	-9.37478
▁마음	-9.37565
▁보니	-9.37702
▁있으세요	-9.37787
▁하여튼	-9.37944
▁영상	-9.3804
▁같	-9.38069
▁알지	-9.38383
▁탈	-9.38433
줄	-9.38452
▁사람들을	-9.38594
▁별	-9.3861
석	-9.38619
▁보니깐	-9.38802
▁왜냐하면은	-9.38929
▁손	-9.3899
하시는	-9.38994
번씩	-9.39092
▁역시	-9.39256
▁만들	-9.393
▁따	-9.393
▁가수	-9.39301
양	-9.39345
▁되어	-9.39392
▁문화	-9.39455
행	-9.39456
다면	-9.39561
▁엠비티아이	-9.396
▁주면	-9.39624
될	-9.39721
걸	-9.39738
▁부분은	-9.39875
공	-9.39895
하려고	-9.40054
▁길	-9.40201
▁후	-9.40245
▁아니지만	-9.40377
▁지금까지	-9.40393
▁똑같은	-9.40411
▁들었어	-9.40467
니깐	-9.40482
▁생각하거든	-9.40529
▁안에서	-9.40577
▁매	-9.40663
▁발전	-9.40732
▁콘서트	-9.40783
▁잘못	-9.40869
▁선택	-9.41099
▁계획	-9.41203
▁편	-9.41283
▁맛집	-9.41327
▁들어가서	-9.41434
▁이제는	-9.41495
▁했지만	-9.41701
▁없어요	-9.41794
▁원자력	-9.41814
▁된다는	-9.41816
▁책을	-9.42092
▁외국	-9.42093
▁알바를	-9.42132
▁나올	-9.42179
보고	-9.42253
배	-9.42268
성이	-9.42399
▁끝나고	-9.42514
여서	-9.42529
▁영	-9.42538
층	-9.42755
▁거죠	-9.42809
되고	-9.42859
브	-9.42919
▁양	-9.43128
▁가까운	-9.43132
▁좋아서	-9.43572
카	-9.43737
▁땐	-9.43852
▁전부	-9.43889
▁생각합니다	-9.44082
▁먹어야	-9.44401
▁없	-9.44573
병	-9.44659
겠지만	-9.44852
▁그랬던	-9.44936
▁허	-9.44938
난	-9.44956
▁초	-9.45121
경	-9.45299
▁들면	-9.45359
▁아이가	-9.45594
돼	-9.45643
기를	-9.4584
▁핸드폰	-9.45857
▁유럽	-9.45935
▁넣고	-9.46104
▁스트레스	-9.46227
명이	-9.46355
▁싶어요	-9.46465
▁바다	-9.46545
▁지역	-9.46628
▁학원	-9.46752
▁동아리	-9.46767
▁했어요	-9.46775
▁비싸	-9.46779
▁부동산	-9.46839
▁수밖에	-9.46889
▁계획을	-9.46889
▁결국	-9.47043
▁못하고	-9.47098
▁군대	-9.47161
색	-9.47238
▁생각해서	-9.47264
▁개인	-9.47367
▁다니면서	-9.4737
▁자유	-9.47497
▁준비를	-9.47501
▁가기	-9.47526
초	-9.47612
▁경제	-9.47613
▁보는데	-9.4762
▁어디서	-9.47832
▁반려동물	-9.48081
▁부분	-9.48103
▁형	-9.48145
▁통	-9.48181
▁씨	-9.48325
▁그러는	-9.48326
▁맞	-9.48333
▁것만	-9.4836
▁얘가	-9.48362
▁싸	-9.48405
▁본인이	-9.4844
▁매일	-9.48445
▁선수	-9.48479
▁뭐라고	-9.48606
▁있니	-9.48641
이란	-9.48763
▁결혼식	-9.48847
▁올해	-9.48893
▁데도	-9.49034
▁왔는데	-9.49391
▁가도	-9.49412
강	-9.49481
▁가자	-9.49487
▁똑같이	-9.49538
▁해야지	-9.49582
감	-9.49751
▁노력을	-9.49801
▁우선	-9.49851
▁기분	-9.49879
▁부분도	-9.49959
▁어찌	-9.49985
아서	-9.50025
▁키울	-9.50091
▁필요	-9.50175
▁미리	-9.50245
▁사랑	-9.50253
▁그렇지만	-9.50397
▁커	-9.50604
▁제사	-9.50605
▁위에	-9.5086
▁소리	-9.50907
▁야구	-9.51242
▁그나마	-9.51253
▁얘기가	-9.51315
▁치	-9.51446
증	-9.51453
▁만나서	-9.51503
▁영화가	-9.51569
▁맞춰서	-9.51575
▁여기서	-9.51595
▁아들	-9.51673
▁인터넷	-9.51812
▁거랑	-9.51833
이면	-9.51874
▁하루에	-9.51964
이지	-9.51966
▁좋더라고	-9.51971
▁포	-9.52
하는데	-9.52019
▁문	-9.52049
▁직업	-9.52054
▁모르고	-9.52159
▁그러	-9.52399
▁했	-9.52581
매	-9.52585
▁만든	-9.5272
킬로	-9.52928
같이	-9.52984
쳐	-9.53086
▁중고	-9.53168
이에요	-9.53176
▁생각할	-9.53192
▁몸에	-9.53256
준	-9.53258
속	-9.53259
▁요런	-9.53284
▁만나는	-9.53335
▁자연	-9.53349
▁비대면	-9.53427
▁가는데	-9.5343
▁스스로	-9.53539
▁다녀	-9.53566
▁싶지	-9.53588
▁보기	-9.53735
▁저희가	-9.53736
▁상태	-9.53973
▁있나요	-9.5404
발	-9.54045
▁살이	-9.54055
▁으	-9.54078
▁얘기해	-9.5411
▁좋아하지	-9.54146
▁달라	-9.54176
▁호텔	-9.54185
▁했지	-9.54197
류	-9.54264
되	-9.5428
▁있다면	-9.54297
심	-9.54414
▁외	-9.54594
▁12	-9.54604
▁괜찮아	-9.54612
▁많으니까	-9.54613
▁했으면	-9.54755
▁정보	-9.54852
▁남아	-9.54926
▁지내	-9.54987
저	-9.5521
▁그러는데	-9.55243
▁일찍	-9.55244
▁친구들은	-9.55293
버	-9.55411
▁나가는	-9.55428
▁하시는	-9.55485
▁사용	-9.55584
건	-9.5561
▁몸	-9.55612
▁오면	-9.55761
다든지	-9.55764
이잖아	-9.55799
▁알게	-9.55907
분이	-9.56021
▁쪽이	-9.56079
▁보이는	-9.56115
▁강아지가	-9.56185
▁편인데	-9.56223
▁저렇게	-9.56244
▁투자를	-9.5625
▁많다	-9.56267
▁티	-9.56283
▁방송	-9.56476
즈	-9.56578
밥	-9.56582
▁자전거	-9.56616
▁짜	-9.56622
▁풀	-9.56701
더	-9.56712
영	-9.56716
▁택시	-9.56754
▁그걸로	-9.56965
▁했거든	-9.57097
▁평소에	-9.57164
▁활동을	-9.57188
▁점	-9.57254
▁힘들고	-9.57299
▁나쁜	-9.57422
▁운전	-9.57565
운	-9.57581
갈	-9.57649
▁커피	-9.57771
▁위	-9.57806
▁있던	-9.58046
자가	-9.58063
격	-9.58073
▁즐겨	-9.58156
▁가끔씩	-9.58334
▁너랑	-9.58507
각	-9.58632
▁가족이	-9.58634
▁들어가는	-9.58696
▁집은	-9.58824
▁있겠지만	-9.58827
▁대해	-9.58828
▁편한	-9.58859
▁세계	-9.5889
▁왜냐면	-9.59014
코	-9.59098
▁걱정	-9.59139
▁이것이	-9.59221
▁방법이	-9.59235
▁가니까	-9.59349
였어	-9.59361
▁투	-9.59414
▁애들도	-9.59471
▁근처에	-9.5948
향	-9.59486
▁공연	-9.59531
▁쉽지	-9.59548
▁그렇죠	-9.59597
▁그쪽	-9.59616
▁휴가	-9.59718
님	-9.59755
▁죽	-9.59903
▁거기에서	-9.60055
▁뉴스	-9.60163
며	-9.60164
▁친구를	-9.60186
▁최대한	-9.60289
▁거래	-9.60341
▁그렇기	-9.60371
▁의사	-9.6038
▁맛있게	-9.60391
▁앞	-9.6047
▁돌	-9.60476
▁들었는데	-9.608
▁볼까	-9.60803
▁말도	-9.60804
▁가짜	-9.60814
였던	-9.60863
키	-9.60865
▁있다가	-9.60932
▁만나고	-9.61198
▁아직은	-9.61204
▁관리	-9.61211
▁보다	-9.61229
▁버	-9.61331
더니	-9.61362
이라도	-9.61406
곤	-9.6142
▁멀리	-9.61435
▁먹지	-9.61563
▁말했던	-9.61615
▁컴퓨터	-9.61701
▁분들	-9.61707
▁학교를	-9.61749
만큼	-9.61784
역	-9.6184
더라도	-9.61862
고요	-9.61896
▁될까	-9.61918
토	-9.62003
▁이것도	-9.62057
▁자격증	-9.62174
▁수는	-9.62222
호선	-9.62329
▁음악을	-9.62535
▁사야	-9.62595
▁친구들도	-9.62704
▁삼	-9.62724
▁걔는	-9.62847
▁아기	-9.62935
▁생일	-9.62953
▁할까	-9.63052
▁않았어	-9.63093
▁못하는	-9.6324
▁너무너무	-9.63349
▁변	-9.63397
▁완전히	-9.63449
교	-9.63478
적이	-9.63487
▁아침	-9.6363
▁오빠가	-9.63697
▁알아서	-9.63706
▁만큼	-9.6371
▁친	-9.63785
▁먹었던	-9.63813
업	-9.6389
워	-9.63926
6	-9.63937
▁이름이	-9.63945
설	-9.64042
▁보려고	-9.6406
▁너의	-9.6407
▁봤거든	-9.64181
▁그러지	-9.64254
▁한다는	-9.64256
▁것보다	-9.64282
▁머리	-9.64481
▁싶다는	-9.64509
▁맛	-9.64546
▁맞춰	-9.6461
▁세대	-9.65005
▁분명히	-9.65024
▁걸어	-9.65055
든지	-9.65201
▁들더라고	-9.65216
▁먹은	-9.65348
들의	-9.6543
하잖아	-9.65436
▁곳에	-9.65483
편	-9.65678
▁많더라고	-9.65723
이었는데	-9.65763
▁느끼는	-9.65793
곡	-9.65803
▁됐어	-9.65839
▁사람들의	-9.65873
▁나름	-9.65891
▁대신	-9.65898
▁편이	-9.65902
▁병원에	-9.65903
백	-9.65987
▁분위기	-9.66
▁백	-9.66006
▁생긴	-9.66107
통	-9.6617
▁대중교통	-9.6617
▁저녁	-9.6642
▁그날	-9.66428
었거든	-9.66446
▁돼요	-9.66529
▁인상	-9.66533
▁부모님	-9.66633
절	-9.66776
▁심	-9.66811
▁불구하고	-9.66898
▁하나도	-9.66915
▁경기	-9.67047
▁그렇	-9.67128
환	-9.67144
▁대체	-9.67231
▁고민을	-9.6731
▁해가지고	-9.67365
▁말해	-9.67367
▁호	-9.67414
▁아르바이트를	-9.6755
하기도	-9.67618
▁시대	-9.67713
하기가	-9.67714
▁꾸준히	-9.67959
▁버스를	-9.6807
▁벌써	-9.6809
▁겨울에	-9.68131
남	-9.68154
▁되더라고요	-9.68173
뿐만	-9.68206
온	-9.68277
▁잘해	-9.68303
▁쭉	-9.68496
▁작년에	-9.68516
▁친구도	-9.6858
▁얘기하는	-9.68635
▁없지만	-9.68641
▁며칠	-9.68985
▁15	-9.69008
▁얼굴	-9.69158
▁않	-9.69215
▁부분을	-9.69274
▁하거든요	-9.69365
▁좋긴	-9.69495
▁놀고	-9.69509
시는	-9.69536
▁기사	-9.69787
▁인간	-9.69801
▁비행기	-9.69895
▁관계	-9.69915
▁마음을	-9.69951
이든	-9.70044
▁것들은	-9.70104
▁설치	-9.70127
▁당장	-9.70194
림	-9.70204
▁스타일이	-9.70259
▁고양이를	-9.70349
▁늦게	-9.70388
▁마지막	-9.70444
▁여름에	-9.70447
▁학	-9.70447
다라고	-9.70507
▁찾아서	-9.70559
▁사람들한테	-9.70573
▁혼자서	-9.7062
▁어린	-9.70718
▁간에	-9.70722
▁배우고	-9.70786
▁차를	-9.70812
▁원래는	-9.70935
▁다르게	-9.70995
▁밤에	-9.7105
▁중간에	-9.71097
네요	-9.71136
▁이러면서	-9.71277
플	-9.71333
임	-9.71342
▁확	-9.71395
▁결국에는	-9.7141
▁거기도	-9.71462
▁아무것도	-9.71467
▁어머니	-9.71584
▁아이들	-9.71593
▁고민이	-9.71648
가지	-9.7165
▁나오	-9.71737
▁예쁜	-9.71746
▁가격	-9.7181
▁오빠는	-9.71872
▁적도	-9.72085
▁갔었는데	-9.7211
▁법	-9.72125
▁company	-9.72325
▁그러더라고	-9.72365
되어	-9.72417
▁요리를	-9.72429
군	-9.72448
▁금	-9.72472
▁밑에	-9.72562
예요	-9.72584
쪽	-9.72647
한다	-9.72674
▁과연	-9.727
냐고	-9.72713
▁신발	-9.72781
근	-9.72781
▁화	-9.72804
이기	-9.72823
애	-9.72866
▁드라마를	-9.72888
▁재밌어	-9.73077
▁부분에서	-9.73105
쯤	-9.73192
▁순간	-9.73244
듯이	-9.73248
▁회사에서	-9.73261
▁눈이	-9.7328
▁뭔지	-9.73298
▁모습을	-9.73319
립	-9.73363
▁그다음	-9.73463
▁금방	-9.73477
▁사람한테	-9.73518
▁추천	-9.73531
▁딴	-9.73546
▁곡	-9.73735
야지	-9.73753
셨	-9.73939
▁갔다가	-9.73961
▁싶기도	-9.74006
현	-9.74051
▁위한	-9.74062
▁이럴	-9.74162
한다는	-9.74175
탕	-9.7424
▁했었어	-9.74244
▁맞다	-9.74245
락	-9.74422
▁선호하는	-9.74432
▁경험을	-9.74439
▁가면서	-9.74548
▁삼성	-9.74758
▁나면	-9.7482
▁하거나	-9.74882
봉	-9.74913
▁만약	-9.74953
▁비해서	-9.74954
▁노래도	-9.75071
▁않아요	-9.7512
▁당	-9.75189
▁말씀하신	-9.75218
▁아픈	-9.75266
▁있었거든	-9.75294
▁학생	-9.75343
▁하나가	-9.75485
▁팀	-9.75688
▁도시	-9.75701
▁내고	-9.75778
▁관심을	-9.75816
▁치킨	-9.75829
▁좋았어	-9.75841
▁게임을	-9.75845
▁이것저것	-9.75971
▁운동이	-9.75993
▁접	-9.76019
▁싫어하는	-9.76297
▁수술	-9.76484
▁하더라도	-9.76487
▁그림	-9.76777
▁코	-9.76778
테	-9.76827
약	-9.7686
▁입장에서는	-9.77027
태	-9.77057
▁기차	-9.77099
▁틀어	-9.77104
▁같거든	-9.77109
▁환경	-9.77127
▁각자	-9.77133
▁있고요	-9.77161
▁기술	-9.77195
▁요번에	-9.7725
년에	-9.77266
name	-9.77389
▁말씀	-9.7743
▁티브이를	-9.77432
▁그것을	-9.77458
▁전에는	-9.77492
▁만들어서	-9.77534
▁생각에는	-9.77622
▁전공	-9.77634
겨	-9.77658
시에	-9.77729
▁올라가	-9.77763
▁싶었는데	-9.77772
▁가진	-9.77854
▁아니다	-9.77886
▁없었던	-9.77914
▁관련	-9.77933
▁고양이가	-9.77984
▁그래야	-9.78154
▁건강을	-9.78182
▁수업을	-9.78227
▁연락	-9.78276
▁같더라고요	-9.78348
승	-9.78456
▁중요하다고	-9.78461
▁저거	-9.78499
창	-9.78539
입	-9.78713
노	-9.78723
▁꿈이	-9.78748
▁고양이는	-9.78766
▁청소	-9.78792
▁부모님이	-9.78898
판	-9.78909
▁빼	-9.78963
▁있을까요	-9.78964
▁시설	-9.78996
▁일은	-9.79181
▁때까지	-9.79279
▁식	-9.79285
▁있었어요	-9.79332
▁옆에서	-9.79342
▁놓은	-9.79402
평	-9.79544
▁싶긴	-9.79565
볼	-9.79587
▁뮤지컬	-9.79641
▁수영	-9.79708
▁되기	-9.79814
▁그러니깐	-9.79827
▁살면서	-9.79858
▁낫지	-9.79882
▁아니잖아	-9.79912
▁맞고	-9.79921
들한테	-9.79924
▁다니	-9.80118
▁같다고	-9.80153
▁하자	-9.80378
▁프로	-9.80414
었고	-9.80426
▁그랬더니	-9.80494
▁혹은	-9.80516
▁신경을	-9.80635
력이	-9.80754
▁부분들이	-9.80779
▁이름	-9.80818
▁아직까지	-9.80853
▁엄마도	-9.80863
▁않게	-9.80904
▁이래	-9.80955
▁털	-9.81006
▁영향을	-9.81046
▁아니니까	-9.81082
▁잘하고	-9.81151
▁잠	-9.81317
▁붙	-9.81448
▁취직	-9.81478
▁저한테	-9.81505
▁노력	-9.81522
▁봐요	-9.81586
▁자고	-9.81649
▁앞에서	-9.81707
▁딸이	-9.81742
왔	-9.81751
▁먹으러	-9.81754
▁편이고	-9.81929
▁밀	-9.81961
▁쇼핑을	-9.82131
▁애플	-9.82245
▁가려고	-9.82259
▁있구나	-9.8226
▁성	-9.82288
▁없으면	-9.8232
▁맛있	-9.82376
▁싶습니다	-9.82389
▁싶다고	-9.82399
▁잡고	-9.82427
▁이사를	-9.82446
▁직업을	-9.82489
▁거라	-9.82568
▁생각나는	-9.82627
겠네	-9.82627
▁좋	-9.82657
▁아니지	-9.82674
▁관리를	-9.82675
▁받아서	-9.8271
▁조끔	-9.8272
▁크	-9.82747
▁이해가	-9.82763
▁서울에	-9.82792
▁차이	-9.82828
▁많다고	-9.82887
▁싼	-9.8307
▁만날	-9.83073
▁가까이	-9.83088
▁아냐	-9.83254
▁산책	-9.83261
▁같다는	-9.83381
▁말고도	-9.83439
▁최근	-9.8344
▁남편	-9.83455
▁특별히	-9.83524
▁그쪽으로	-9.83595
다거나	-9.83661
▁속	-9.83791
▁전화	-9.83856
▁거로	-9.83925
▁아버지	-9.83942
▁토	-9.8395
▁두고	-9.83955
▁당근	-9.83996
함	-9.84008
▁밖에서	-9.84061
▁고런	-9.84128
▁말고는	-9.84129
▁스마트폰	-9.84147
▁만들고	-9.84174
▁잡아	-9.84205
▁없었어	-9.84386
▁하더라	-9.84399
▁것들도	-9.84473
▁배워	-9.8451
▁일하는	-9.84603
▁지방	-9.84623
▁이유는	-9.8463
▁필요가	-9.84769
▁저녁에	-9.84801
▁기본적으로	-9.84813
7	-9.84874
▁학교에	-9.84941
▁남편이	-9.84945
▁분들은	-9.8498
겠어	-9.84981
▁싶	-9.8503
▁나갈	-9.85119
복	-9.85132
▁생각해요	-9.85215
▁않지만	-9.85234
▁11	-9.85266
▁가정	-9.85401
▁나왔던	-9.85443
▁회	-9.8549
▁가을	-9.85539
▁앉아	-9.85599
▁얘기도	-9.85611
청	-9.85758
▁입어	-9.8578
▁장점이	-9.8597
▁않는데	-9.86
▁나니까	-9.86024
▁이러니까	-9.86058
▁유행	-9.86066
▁당시에	-9.86071
▁저런	-9.86155
장이	-9.8617
채	-9.8618
▁먹는데	-9.86237
었어요	-9.86346
▁불편한	-9.86409
▁들었던	-9.86448
▁실	-9.86468
져서	-9.86528
▁연애를	-9.86566
▁정해	-9.86591
▁직업이	-9.86645
▁면접	-9.86746
▁연락을	-9.86825
▁그렇다	-9.86898
▁생각하지	-9.86904
▁코인	-9.8702
▁빵	-9.87102
▁차가	-9.87126
▁입는	-9.87131
▁치료	-9.87138
▁취업을	-9.87142
▁깨	-9.87247
▁최근에는	-9.87249
투	-9.87257
력	-9.87297
▁싶을	-9.87391
견	-9.87404
▁번도	-9.87411
▁절	-9.87461
▁번째	-9.87462
▁병	-9.8749
▁같기는	-9.87491
▁떡볶이	-9.87526
▁영화는	-9.87628
▁편인	-9.87653
▁꽃	-9.87861
하긴	-9.87888
▁종류	-9.87905
합니다	-9.87921
▁먹었는데	-9.87966
▁주변에서	-9.88024
▁데를	-9.88095
세요	-9.88138
▁상황	-9.88139
▁정도의	-9.88245
▁술을	-9.88248
▁내일	-9.88286
▁경우에	-9.8834
원이	-9.8836
▁동생이	-9.88384
▁내용이	-9.88416
▁끝까지	-9.88439
▁일도	-9.88468
▁물어	-9.88493
▁국가	-9.88546
▁말씀을	-9.88586
▁아우	-9.88626
▁결국은	-9.88628
▁이용	-9.88655
▁생기고	-9.88658
▁않았는데	-9.88697
려면	-9.88741
▁한다면	-9.89025
▁엄마랑	-9.89226
▁그래요	-9.8924
▁주택	-9.89259
▁그렇긴	-9.89277
막	-9.8932
▁추	-9.8945
퍼센트	-9.89472
▁에이	-9.89553
▁대기업	-9.89662
▁60	-9.89671
▁힘이	-9.89686
목	-9.89713
▁있겠다	-9.89754
▁재테크	-9.89924
글	-9.89937
▁들어요	-9.90016
이긴	-9.90076
▁글쎄	-9.90183
▁것보다는	-9.90229
▁방금	-9.90231
▁아들이	-9.90288
▁방학	-9.90304
놓고	-9.90349
▁헬스	-9.90361
▁색깔	-9.90384
▁한참	-9.90458
▁시작을	-9.90531
▁골프	-9.90559
▁모습	-9.90595
▁잡	-9.90599
▁연예인	-9.90637
▁너한테	-9.90652
▁치고	-9.9077
▁괜찮	-9.90787
주일	-9.90798
▁기계	-9.90814
하다고	-9.9086
▁찍어	-9.90876
▁키우	-9.90978
장을	-9.91053
▁맨	-9.91096
엠	-9.9114
▁각	-9.91186
품	-9.91328
▁넘	-9.91372
▁이상한	-9.91418
▁간다고	-9.91475
리는	-9.91486
▁느낀	-9.9149
▁꿈	-9.91592
씨	-9.91709
까진	-9.91784
추	-9.91828
▁눈에	-9.91952
▁봄	-9.92043
▁불러	-9.92078
▁화장실	-9.92097
지지	-9.92112
▁시간도	-9.92144
▁하나의	-9.9215
▁재미가	-9.92159
▁만난	-9.92184
▁할아버지	-9.92199
▁감정	-9.92201
작	-9.92253
수가	-9.92347
▁갖다	-9.92367
▁물건	-9.92397
▁명절	-9.9248
▁봤어요	-9.92489
▁아이를	-9.92495
▁다행히	-9.92659
▁비타민	-9.92702
▁빼고	-9.9277
▁닭	-9.92839
▁않다고	-9.92979
▁복지	-9.93038
▁말대로	-9.9305
▁암	-9.93103
▁않은데	-9.9312
▁생기는	-9.93186
▁철	-9.932
▁시즌	-9.93259
▁지원	-9.93267
▁노는	-9.93351
▁구매를	-9.93385
혀	-9.93415
▁관련해서	-9.9354
▁진짜로	-9.93783
▁물건을	-9.938
▁동생	-9.93822
▁느낄	-9.93827
▁자연스럽게	-9.93829
8	-9.93838
덕	-9.93843
▁못한	-9.93925
▁맛있어	-9.93935
셔	-9.94052
▁근	-9.94061
▁말했듯이	-9.94125
▁업무	-9.94145
▁과일	-9.94146
하신	-9.9418
하더라고	-9.94279
-	-9.94386
▁이래서	-9.94425
▁그러게	-9.94426
▁스트레스를	-9.94502
▁아니라고	-9.94519
▁구매	-9.94595
▁예전	-9.94608
하다가	-9.94654
▁감	-9.94673
▁비용이	-9.94679
▁공무원	-9.94683
▁졸업	-9.94817
출	-9.94824
▁시골	-9.94871
▁해보고	-9.94895
▁밤	-9.94915
▁코로나가	-9.94917
었잖아	-9.94931
시고	-9.95228
▁있었	-9.95241
▁떠	-9.95252
▁문제는	-9.95285
▁치매	-9.95349
▁어떨까	-9.95455
서는	-9.95485
▁이러	-9.95526
다든가	-9.95532
▁추억	-9.95602
▁들어갈	-9.95607
▁번씩	-9.95695
▁아빠는	-9.95714
▁이유	-9.95736
▁드는데	-9.95745
▁들어간	-9.95861
말	-9.95885
▁기억나	-9.95891
친	-9.95939
▁기본	-9.95945
▁놓	-9.96025
▁되는지	-9.96062
▁제품	-9.9619
▁먹어도	-9.96233
▁먹으니까	-9.96377
달에	-9.96388
▁하나씩	-9.96388
▁목	-9.96392
▁꿈을	-9.96446
다라는	-9.96533
▁곳에서	-9.96635
▁가방	-9.9674
▁나가고	-9.96892
▁엄	-9.969
▁올려	-9.96923
▁아직까지는	-9.97031
▁저희는	-9.97112
름	-9.97171
▁1000	-9.97277
▁달라고	-9.97324
▁배우는	-9.97492
링	-9.97528
▁가사	-9.9755
불	-9.9769
▁국	-9.97692
칠	-9.97702
▁정보를	-9.97705
▁알았어	-9.97765
있	-9.97811
▁엄청나게	-9.9783
▁걔네	-9.97851
▁돈도	-9.97877
▁김치	-9.9795
어야	-9.97962
▁쪽은	-9.97978
▁자신	-9.97993
▁생각했는데	-9.98107
▁맞다고	-9.98131
번도	-9.98209
▁그랬어	-9.98242
▁사건	-9.98353
▁등산	-9.98391
▁건강에	-9.98408
▁쪽에서	-9.9849
▁대충	-9.98515
▁같지	-9.98552
▁축제	-9.98586
▁인생	-9.98642
▁정확하게	-9.98683
▁보신	-9.9873
▁하겠다	-9.98759
숙	-9.9876
▁검사	-9.98807
끼리	-9.98844
▁넷플릭스	-9.98855
▁써야	-9.9889
▁느끼	-9.98943
▁느끼고	-9.98957
▁망	-9.99058
▁않았나	-9.99104
였	-9.99168
▁반려동물을	-9.99174
▁좋아했던	-9.99217
▁좋아해요	-9.99245
▁먹어서	-9.99256
▁괜히	-9.99399
▁찍고	-9.99436
▁있단	-9.9946
▁점심	-9.99461
케	-9.99482
후	-9.99498
▁그룹	-9.99582
대요	-9.99622
▁생길	-9.99681
스트	-9.99732
▁환승	-9.99738
▁내용	-9.99785
▁적금	-9.99895
▁미술	-9.99932
▁버스가	-9.99984
론	-10.0005
▁괜찮은데	-10.0005
▁괜찮지	-10.0008
▁주지	-10.0016
▁알았는데	-10.0016
▁찌	-10.0025
▁강아지는	-10.0026
▁결정	-10.0028
▁무서워	-10.0039
▁키	-10.0042
▁갔어	-10.0044
▁분들도	-10.0046
▁일부러	-10.0047
▁대화를	-10.0066
▁생활이	-10.007
▁개를	-10.0073
▁간다	-10.0092
▁편이에요	-10.0096
▁등	-10.0098
▁인테리어	-10.01
▁카	-10.0102
▁수능	-10.0106
▁약을	-10.0116
▁케이크	-10.0118
▁숙소	-10.0123
길래	-10.0134
▁시장	-10.0141
법	-10.0151
▁쿠팡	-10.0151
▁먹게	-10.0158
▁스타일	-10.0162
▁목표	-10.0165
▁달에	-10.0166
▁평생	-10.0176
▁좋지만	-10.0187
▁까	-10.0191
▁애초에	-10.0199
▁풀어	-10.0208
술	-10.0213
▁끝	-10.0215
▁뭐냐	-10.0215
때	-10.0221
▁같고요	-10.0223
▁운동도	-10.0226
▁방법	-10.0227
▁후에	-10.023
이어서	-10.0233
▁귀	-10.0234
▁힘	-10.0234
▁아이폰	-10.0235
량	-10.024
커	-10.0241
▁생겨	-10.0245
▁연습	-10.0248
▁행동	-10.0249
▁광고	-10.026
▁나라에서	-10.0264
▁자리	-10.0267
▁먹기	-10.0274
냐면	-10.0277
▁말이지	-10.028
▁다이어트를	-10.0288
년이	-10.029
육	-10.0303
▁없었는데	-10.0305
▁않을까라는	-10.0307
▁형은	-10.0309
마리	-10.0311
대가	-10.0327
▁회사에	-10.0332
▁하셨는데	-10.0335
▁날씨가	-10.0342
▁메	-10.0342
점이	-10.0343
▁사업	-10.0348
▁모르겠고	-10.0359
▁연기	-10.0359
▁농구	-10.0371
▁받았	-10.0372
▁곳을	-10.0373
▁오프라인	-10.038
▁샀는데	-10.0381
▁재밌었던	-10.0383
▁조금씩	-10.0383
▁빠져	-10.039
점을	-10.0395
▁되면서	-10.04
▁아파	-10.0408
담	-10.0409
▁괜찮다고	-10.0417
▁당신	-10.0418
▁그니까	-10.0419
▁프로그램이	-10.0419
▁살았	-10.0425
▁디자인	-10.044
로는	-10.0452
▁크고	-10.0452
▁강원도	-10.0459
▁그때부터	-10.0462
▁이후로	-10.0464
았	-10.0468
▁했었고	-10.0469
▁200	-10.0472
하러	-10.0479
▁쓰레기	-10.048
▁거보다	-10.0487
▁나눠	-10.0489
였나	-10.0493
▁추억이	-10.0494
▁것에	-10.0495
▁피자	-10.0495
▁반대로	-10.0495
▁또한	-10.0496
착	-10.0497
▁경우에도	-10.05
감이	-10.0504
▁않으면	-10.0508
▁나오는데	-10.0515
▁가보고	-10.0516
▁사면	-10.0518
▁본인	-10.0521
▁기피	-10.0524
했고	-10.0534
▁봤었는데	-10.0541
으면은	-10.055
▁여행지	-10.0551
▁애들이랑	-10.0553
▁카드	-10.0554
▁부르는	-10.0557
항	-10.0569
▁싸게	-10.057
▁쪽을	-10.0577
▁회사를	-10.0578
▁뭔가를	-10.0592
이었던	-10.0603
▁주식을	-10.0607
▁발라드	-10.0609
▁됐을	-10.061
▁거리	-10.061
비가	-10.0614
순	-10.0621
▁엄마한테	-10.0633
▁않아도	-10.0636
▁편의점	-10.0637
▁입장에서	-10.0648
▁씨는	-10.0651
▁개발	-10.0653
▁누나	-10.0654
▁하잖아요	-10.0664
▁사용하는	-10.067
▁없기	-10.0673
▁모습이	-10.0683
▁마스크	-10.0684
▁좋겠는데	-10.0684
열	-10.0686
▁있죠	-10.0687
▁모르겠다	-10.0688
▁아까도	-10.0694
▁앉아서	-10.0696
▁에프	-10.0698
▁손해	-10.0704
▁베트남	-10.0711
▁여행이	-10.0713
▁알아보고	-10.0716
▁심지어	-10.072
▁애들한테	-10.0726
▁기억은	-10.0738
▁이용하는	-10.0739
▁있었으면	-10.0748
먹	-10.0751
▁궁금합니다	-10.0753
▁내려	-10.0772
▁보이고	-10.0772
▁모아	-10.0775
▁야채	-10.0778
▁현실	-10.0782
▁누	-10.0786
패	-10.0791
▁힘들었던	-10.0791
▁나오면	-10.0791
페	-10.0806
▁않으니까	-10.0807
▁엠비티아이가	-10.0807
▁있어도	-10.0812
▁부르	-10.0819
▁쓴	-10.0837
끼	-10.0839
악	-10.0842
▁부모	-10.0865
▁않다	-10.087
▁그때도	-10.0871
▁안락사	-10.0873
▁전기	-10.0879
▁몸을	-10.088
▁내년	-10.0881
▁작년	-10.0888
범	-10.0892
▁거면	-10.09
예	-10.0901
▁편하고	-10.0913
▁청	-10.0919
돈	-10.0925
▁시기	-10.0929
언	-10.0935
▁도움을	-10.0938
▁대구	-10.0946
▁대화	-10.0946
▁옷이	-10.0953
▁사진을	-10.0953
▁좋아하니까	-10.0955
▁70	-10.0957
▁친구들하고	-10.0958
▁유지	-10.096
봐	-10.0963
▁점은	-10.0964
▁우리나라가	-10.0967
▁주기	-10.0969
▁복	-10.0972
▁이러면	-10.0989
▁현	-10.0993
▁쉬	-10.0998
▁대면	-10.1
머	-10.1016
▁티브이가	-10.1017
▁쉬운	-10.1017
▁시절	-10.1018
희	-10.1023
▁모두	-10.1029
▁제사를	-10.1036
▁걸리	-10.104
거리	-10.1042
▁생각하세요	-10.1049
▁애니메이션	-10.1059
▁느껴	-10.1066
화가	-10.1073
▁상상	-10.1079
망	-10.1081
었	-10.1096
▁교	-10.1108
▁많아요	-10.1118
▁아쉬운	-10.1124
▁마트	-10.1131
▁취	-10.1132
▁팬	-10.1133
▁끼	-10.1141
블	-10.1149
▁생각에	-10.1149
▁오면은	-10.1155
▁범죄	-10.1161
으려고	-10.1162
▁말은	-10.1162
▁노래는	-10.1168
▁백화점	-10.117
▁나왔는데	-10.1171
▁기대	-10.1172
▁얘길	-10.1176
▁길게	-10.1179
▁사람이랑	-10.1182
▁그러한	-10.1186
▁났	-10.1194
▁밴드	-10.1196
▁지내고	-10.1197
▁수학	-10.1201
▁곧	-10.1206
▁처음부터	-10.1212
▁썼	-10.1222
퍼	-10.1231
▁식당	-10.1234
▁정신	-10.124
▁금액	-10.125
▁가만히	-10.1265
▁보호	-10.1266
▁성향이	-10.1271
▁생각한	-10.1275
▁로봇	-10.1276
▁후회	-10.129
▁총	-10.129
▁들어가고	-10.1291
▁활용	-10.1301
▁줘서	-10.1302
▁나은	-10.1303
▁요즘엔	-10.1309
▁거기를	-10.1309
▁둘째	-10.1315
▁기타	-10.1318
▁할인	-10.1328
▁뭔	-10.1329
▁평	-10.1334
되지	-10.1335
▁보이	-10.1342
▁가르쳐	-10.1342
▁찾아보고	-10.1344
너	-10.1346
▁자신이	-10.1347
▁넣	-10.1348
▁여유가	-10.1351
▁인공	-10.1357
▁존재	-10.1366
▁xx	-10.1368
▁웹툰	-10.1372
▁있었잖아	-10.1372
▁인기가	-10.1375
▁보다가	-10.1375
▁드라마가	-10.1377
했다	-10.1378
▁시작	-10.1379
▁인사	-10.1381
▁나름대로	-10.1381
▁곳은	-10.1383
▁내는	-10.1385
▁케이스	-10.1387
▁역사	-10.1393
▁계시	-10.1396
▁안전	-10.1396
▁일정	-10.1405
십	-10.1406
▁팔고	-10.1407
▁자동차	-10.1409
▁했었거든	-10.1416
철	-10.1417
▁갔	-10.142
▁해외여행	-10.142
▁부담이	-10.1421
▁힘들지	-10.1422
▁쪼금씩	-10.143
▁선택을	-10.1437
▁뭐랄까	-10.1441
▁다리	-10.1445
돼서	-10.1452
▁질문	-10.1457
▁다양하게	-10.1461
겠죠	-10.1475
▁구경	-10.1484
▁일상	-10.1488
▁장르	-10.149
▁식품	-10.149
▁계신	-10.1499
▁음식은	-10.1505
▁얘기한	-10.1509
▁됐고	-10.1515
▁친구한테	-10.152
▁생각했을	-10.1521
▁생각했던	-10.1533
▁사이	-10.1535
▁끝나	-10.1535
▁지내는	-10.1541
▁했다	-10.155
▁80	-10.1552
▁읽어	-10.1562
▁당시	-10.1569
▁쉬는	-10.1574
▁간단하게	-10.1587
▁과학	-10.159
웠	-10.1596
▁자체를	-10.1596
▁않더라고	-10.1601
님이	-10.1602
▁먹으면서	-10.1602
▁효과가	-10.1604
▁공원	-10.1604
▁형이	-10.1609
▁대신에	-10.1609
▁경기도	-10.1616
▁서울에서	-10.1616
으로써	-10.1618
▁탄	-10.1622
▁아버지가	-10.1622
▁얘	-10.1622
▁영상을	-10.1626
▁장난	-10.1628
▁음식점	-10.1633
화를	-10.1637
▁이러고	-10.1641
▁특	-10.1646
▁했었던	-10.1651
▁코스	-10.1651
▁보긴	-10.1659
▁좋아하거든	-10.166
▁기간	-10.1668
▁면에서	-10.1669
▁날씨	-10.1678
▁힙합	-10.1681
▁사기	-10.169
골	-10.1694
▁웬만하면	-10.1696
▁있기는	-10.17
▁상태에서	-10.1701
▁디	-10.1706
▁분위기가	-10.171
▁깊게	-10.1711
슬	-10.1716
▁울	-10.1721
▁만족	-10.1729
▁시설이	-10.1733
▁처	-10.1736
▁이용을	-10.1738
▁그러다가	-10.1738
▁저랑	-10.174
▁되다	-10.1748
▁비용	-10.1748
▁애를	-10.1749
▁부담	-10.1749
▁입장	-10.1752
▁살기	-10.1771
▁정말로	-10.1776
별로	-10.1785
리고	-10.1795
▁매운	-10.1797
이었어	-10.18
▁특별한	-10.1805
▁어려워	-10.1807
▁궁금한	-10.1813
▁이쪽	-10.1814
▁기업	-10.1816
▁잔	-10.182
▁그때가	-10.1821
▁마라탕	-10.1821
▁패키지	-10.1832
짜리	-10.1834
▁있도록	-10.1842
▁학창	-10.1842
값	-10.1844
▁주문	-10.1848
▁싶었던	-10.1852
▁쇼핑몰	-10.1854
▁인천	-10.1854
▁기회	-10.1865
▁너네	-10.1866
▁되거든	-10.1866
▁필요하다고	-10.1868
▁길이	-10.1876
▁재밌을	-10.1879
▁나머지	-10.188
▁했었	-10.1883
▁프로그램을	-10.1889
▁주말에	-10.1889
▁의미가	-10.189
▁힘들었	-10.1894
▁줬으면	-10.1898
▁오징어	-10.1901
▁작품	-10.1904
▁말하면	-10.1921
▁종류가	-10.1931
▁돼야	-10.1933
월에	-10.1936
보단	-10.1939
▁왔어	-10.194
충	-10.1942
▁입장이	-10.1943
해도	-10.1946
▁하나는	-10.1956
▁트로트	-10.1966
▁깜짝	-10.1968
손	-10.1969
▁산책을	-10.1976
갖고	-10.1983
▁네이버	-10.1985
▁하는지	-10.1985
했으면	-10.1993
▁보험	-10.2002
▁저의	-10.2015
▁들으면	-10.2017
▁좋겠고	-10.2025
번은	-10.2027
▁아니더라도	-10.2031
▁모여서	-10.2033
▁좋아요	-10.204
▁추천을	-10.2043
▁되긴	-10.2049
졌	-10.2052
식으로	-10.2056
▁아이유	-10.2066
했	-10.2067
▁반찬	-10.2073
▁웃	-10.2078
▁왔을	-10.2079
▁재밌고	-10.2086
▁바뀌었	-10.2087
가는	-10.209
▁면이	-10.2102
▁하던데	-10.2103
북	-10.2106
합	-10.2112
짝	-10.2129
▁명품	-10.2136
▁체육	-10.2139
▁거거든	-10.2142
▁간식	-10.2143
▁돈으로	-10.2143
▁없었고	-10.2147
▁있거나	-10.2149
▁위해	-10.2152
▁가져	-10.2157
런	-10.216
▁에너지	-10.2164
년을	-10.2168
▁피해	-10.2172
▁말씀해	-10.2173
▁선수가	-10.2177
▁화장	-10.218
▁상황에서	-10.2187
▁괜찮다	-10.2187
▁작가	-10.2188
됐	-10.22
▁이해	-10.2211
▁그렇게까지	-10.2212
잡	-10.2214
▁집도	-10.2218
▁있겠지	-10.2219
▁낫	-10.2222
으면서	-10.2231
▁살다	-10.2232
▁없더라고	-10.2232
▁의미	-10.2232
▁은행	-10.2238
▁계란	-10.2238
▁괜찮고	-10.2241
처	-10.2241
▁들더라고요	-10.2247
▁피아노	-10.2256
▁않았을까	-10.2259
쯤에	-10.2262
▁배울	-10.2267
▁피해를	-10.2279
▁친구들을	-10.2292
9	-10.2292
▁성향	-10.2293
▁만에	-10.2293
▁현대	-10.2301
▁이후에	-10.2306
▁근처	-10.2311
▁물을	-10.2313
▁식단	-10.2314
▁교육을	-10.2315
올	-10.2325
▁과정	-10.2327
▁아유	-10.2328
▁근무	-10.2334
▁교통	-10.2341
▁중간	-10.2345
▁좋았고	-10.2346
▁거보다는	-10.2347
▁오랫동안	-10.2348
▁했었잖아	-10.2356
▁했으니까	-10.2366
▁사이에	-10.2386
▁공간	-10.2387
▁추석	-10.2392
▁먼	-10.2394
▁극	-10.2397
▁사촌	-10.2397
▁만화	-10.2398
▁처음으로	-10.24
니다	-10.2402
▁아님	-10.2403
▁어땠어	-10.2403
▁사람과	-10.2409
▁거라서	-10.2422
▁그런가	-10.2428
▁그중에서	-10.2429
외	-10.244
▁작	-10.2443
▁그분이	-10.2446
▁노인	-10.2449
집이	-10.245
만한	-10.246
▁지역에	-10.2464
▁속에서	-10.2469
▁정확히	-10.2469
▁짧게	-10.2471
령	-10.2475
▁중에서는	-10.2479
▁마시고	-10.2482
▁일어나	-10.2485
▁얘기하고	-10.2487
▁도착	-10.2488
탄	-10.2495
▁느낌을	-10.2506
주일에	-10.2507
▁듣기	-10.2508
▁자격증을	-10.251
▁여성	-10.2518
▁유치원	-10.2521
▁나왔	-10.2523
▁집중	-10.2528
생활	-10.253
▁상대	-10.2541
▁고생	-10.2543
▁화장품	-10.2547
▁없거든	-10.2556
▁표현	-10.2556
었지	-10.2558
▁우정	-10.2559
▁앱	-10.2569
▁관	-10.2569
▁배우가	-10.2573
▁대전	-10.2575
▁개가	-10.2576
▁뭐냐면	-10.2582
▁얘기는	-10.2586
▁떨어져	-10.2588
▁싶으면	-10.2589
▁보조	-10.2592
▁커서	-10.2592
족	-10.2599
▁들으면서	-10.2604
▁에스엔에스	-10.2605
▁먹었어	-10.2612
녀	-10.2617
▁그리	-10.2626
▁지켜	-10.2628
▁나이에	-10.263
▁진행	-10.2647
▁소비	-10.2649
▁좋더라고요	-10.2655
▁캐릭터	-10.2657
▁서비스	-10.2658
▁궁금해	-10.2659
▁낼	-10.2665
▁갤럭시	-10.2671
▁있는데요	-10.2671
▁취직을	-10.2673
▁넘게	-10.2676
▁수영을	-10.2685
▁환경이	-10.2699
▁물어보	-10.27
▁입을	-10.27
▁행사	-10.2701
▁조심	-10.2702
▁됐던	-10.2703
▁나중에는	-10.2704
▁분야	-10.2704
▁사용을	-10.2705
▁예방	-10.2706
축	-10.2712
▁넣어서	-10.2713
▁신랑	-10.2719
▁에스	-10.2721
▁무리	-10.2726
스러운	-10.2741
나요	-10.2742
▁인기	-10.2745
했다고	-10.2745
▁담	-10.2749
느냐	-10.2753
▁계획이	-10.2756
▁교수님	-10.2756
▁여행은	-10.2757
▁대만	-10.2766
▁성장	-10.2767
한데	-10.277
▁고등학생	-10.2772
▁독	-10.2772
대를	-10.2773
▁모르는데	-10.2776
▁찬성	-10.2779
▁틀	-10.2779
▁배가	-10.2786
있는	-10.2794
▁이용해서	-10.2797
▁배운	-10.2799
▁날이	-10.2804
▁주니까	-10.2805
▁발생	-10.2807
만의	-10.2807
▁보진	-10.2809
▁걸려	-10.2811
▁논	-10.2814
▁우리나라는	-10.2824
▁그쪽에	-10.2825
값이	-10.283
▁시키	-10.2833
▁추가	-10.2838
▁하나를	-10.2842
▁출근	-10.2844
▁중에서도	-10.2848
▁5000	-10.286
▁편은	-10.2873
션	-10.2879
▁연락이	-10.2885
▁땅	-10.2886
▁듣	-10.2888
였고	-10.2891
▁쳐	-10.2892
▁관계가	-10.2894
▁성격을	-10.2896
▁이모	-10.2899
▁유튜브를	-10.29
▁배드민턴	-10.29
▁건물	-10.2903
▁바람	-10.2904
▁위해서는	-10.2909
줘야	-10.2913
▁내년에	-10.292
▁이해를	-10.2922
▁이동	-10.2927
▁않았던	-10.2928
이었나	-10.2935
▁이상하게	-10.294
▁정리	-10.2946
수록	-10.2949
▁들었	-10.2952
엘	-10.2955
▁너무나	-10.2964
▁무서운	-10.2976
▁우리나라에서	-10.2993
▁대학을	-10.2997
▁올림픽	-10.2997
▁특히나	-10.2997
▁사람들이랑	-10.3
알	-10.3006
▁군	-10.3009
▁대해선	-10.3009
▁생선	-10.301
기에는	-10.3018
▁구워	-10.3024
▁많았	-10.3029
▁중요하	-10.3029
했잖아	-10.3043
촌	-10.3043
▁공포	-10.3044
▁필요할	-10.3055
▁가족들이	-10.3065
▁소리가	-10.3067
▁아프	-10.3069
▁운동은	-10.3075
료	-10.3078
으로는	-10.3087
▁계절	-10.3099
▁이러는	-10.3111
▁대중교통을	-10.3112
염	-10.3117
▁뜨	-10.3117
▁놓는	-10.3117
▁먹으려고	-10.3117
▁혼	-10.3122
▁강남	-10.3124
▁냄새가	-10.3125
▁모임	-10.3129
▁포장	-10.313
▁지원을	-10.3131
▁감독	-10.3132
▁개인적인	-10.3135
▁조절	-10.3136
▁결혼하고	-10.3147
▁기능	-10.3147
▁놀아	-10.3147
▁나만	-10.3157
▁살아야	-10.3172
▁불편하	-10.3175
▁주인	-10.3175
▁얘기했던	-10.3177
▁그것만	-10.3178
▁떼	-10.3179
▁많잖아요	-10.3183
▁이틀	-10.3185
▁약속	-10.3197
▁아프고	-10.32
▁식사	-10.3204
▁뉴스를	-10.3215
택	-10.3217
▁형님	-10.3218
▁좋아하시는	-10.3221
▁생각하기	-10.3221
▁지난	-10.3222
▁실제	-10.3223
▁공감	-10.3232
▁결과	-10.3235
▁상황에	-10.3245
든가	-10.3248
▁말할	-10.3248
▁예약	-10.3253
▁바지	-10.3256
▁집안	-10.3256
▁청소년	-10.3259
▁즐길	-10.326
▁양념	-10.326
▁그랬잖아	-10.3272
▁선물이	-10.3273
▁주위에	-10.3277
사가	-10.3278
▁나오니까	-10.329
▁참고	-10.3291
▁이번에는	-10.3292
▁많더라고요	-10.3295
▁해결	-10.3297
성을	-10.33
째	-10.33
▁꺼	-10.3306
▁예술	-10.3308
▁똑같	-10.3308
▁지하철이	-10.331
▁온라인으로	-10.3312
▁어디로	-10.3317
에스	-10.3318
x	-10.3331
▁찍	-10.3335
▁기억나는	-10.3336
려서	-10.3338
▁힘들어서	-10.3344
▁자식	-10.3345
▁악	-10.3347
▁만나면	-10.3347
▁과목	-10.3354
▁가거나	-10.336
▁마련	-10.3361
▁중요하게	-10.3367
▁아무도	-10.3369
▁자기의	-10.3372
▁버리고	-10.3373
▁전시회	-10.3374
갔	-10.338
▁포기	-10.3385
▁됐	-10.3388
▁갖다가	-10.3388
▁타면	-10.3392
▁좋겠어요	-10.3395
▁기간이	-10.3396
▁패션	-10.3397
▁길을	-10.34
▁가수들	-10.3402
▁몰랐는데	-10.3405
츠	-10.3407
▁준비하고	-10.3418
▁인식	-10.3418
▁욕	-10.3418
▁침대	-10.342
▁남은	-10.3422
결	-10.3423
메	-10.3428
▁직장을	-10.3429
▁위치	-10.3441
▁인정	-10.3442
▁경향이	-10.3443
▁연예인들	-10.3445
▁한창	-10.3449
▁동물을	-10.3457
수를	-10.3458
▁글	-10.3463
보니까	-10.3464
▁새벽	-10.3464
▁다르	-10.3466
적이고	-10.3468
▁아저씨	-10.3469
▁종이	-10.3483
▁유튜브에서	-10.349
▁쓰지	-10.349
▁쉬고	-10.3493
▁바닷가	-10.3494
▁됩니다	-10.3496
▁써서	-10.35
▁어머니가	-10.35
▁거리가	-10.3501
▁못해	-10.3503
▁근력	-10.3509
학기	-10.3516
▁힘들게	-10.3522
▁꼬	-10.3527
▁비트코인	-10.3534
해요	-10.3535
▁방법을	-10.3536
▁기준이	-10.3542
▁아빠랑	-10.3543
▁넘어	-10.3546
▁체험	-10.3547
▁기억을	-10.3549
벌	-10.3549
▁정해져	-10.3552
▁경찰	-10.3557
▁어디를	-10.3564
▁막내	-10.3569
▁켜	-10.3572
▁산업	-10.3578
▁느낌으로	-10.3579
▁매장	-10.3579
▁여기저기	-10.358
▁문화가	-10.3582
▁대회	-10.3586
▁죽을	-10.3589
흥	-10.359
▁경주	-10.3594
▁칠	-10.3602
으시	-10.3602
▁티브이에서	-10.3608
▁명이	-10.3612
▁공간이	-10.3614
▁단점이	-10.3616
▁단백질	-10.3627
▁싸우	-10.3631
사를	-10.3636
▁라면	-10.3638
습	-10.3639
▁사장님	-10.364
▁역할을	-10.364
▁돌려	-10.3641
▁않잖아	-10.3644
팔	-10.3647
▁경제적인	-10.3647
도록	-10.3653
▁쪼끔씩	-10.3658
▁넣는	-10.3664
▁맞나	-10.3667
▁출퇴근	-10.3668
▁전자	-10.3674
▁수영장	-10.3677
▁단점	-10.3678
▁이쁜	-10.368
▁물고기	-10.368
식이	-10.3681
▁고기를	-10.3681
자고	-10.3682
겠구나	-10.3684
이지만	-10.3684
▁빠지	-10.3685
▁의견	-10.3686
▁피부	-10.3687
▁핸드폰을	-10.3693
▁첫째	-10.3696
▁들긴	-10.3699
▁볼게	-10.37
▁많거든	-10.3702
▁섬	-10.3702
▁단계	-10.3702
▁세상이	-10.3703
▁떨어지는	-10.3707
▁하나하나	-10.371
▁아니에요	-10.3714
▁주인공	-10.3719
▁얘는	-10.372
▁그러니까는	-10.3725
▁맞을	-10.3733
▁소음	-10.3738
▁자취	-10.3743
▁기술이	-10.3744
▁먹거리	-10.3744
▁나무	-10.3746
▁캐	-10.3751
▁그전에	-10.3752
▁모여	-10.3754
▁때나	-10.3755
분들이	-10.3756
▁얘기할	-10.3757
▁나오지	-10.3758
▁필수	-10.3761
▁역	-10.3762
쳐서	-10.3771
▁비슷하게	-10.3773
▁예뻐	-10.3779
▁캠핑	-10.3787
▁전세	-10.379
▁안락사를	-10.3798
▁여행도	-10.38
었거든요	-10.3802
▁흔히	-10.3807
가면서	-10.3813
▁회사가	-10.3814
▁편입니다	-10.3821
▁보내고	-10.3828
었을	-10.3828
▁시험을	-10.383
▁주제	-10.3835
▁하나만	-10.3836
▁나오잖아	-10.3837
▁언니도	-10.3843
▁맥주	-10.3845
▁털이	-10.3845
▁주말	-10.3846
▁모르니까	-10.3846
▁좋았	-10.3846
▁축구를	-10.3851
▁됐어요	-10.3853
까지도	-10.3853
▁마지막에	-10.3854
▁인터넷으로	-10.3855
학과	-10.3856
협	-10.386
▁위험	-10.3862
원에	-10.3863
을까	-10.3865
▁성공	-10.3866
▁여수	-10.3866
▁합	-10.3867
▁검사를	-10.3867
▁치는	-10.3868
▁했더니	-10.3877
▁듭니다	-10.388
▁공기	-10.3881
▁중이야	-10.3883
▁친구들한테	-10.3884
▁나에게	-10.3886
▁떠나	-10.3896
▁우린	-10.3898
▁거잖아요	-10.3901
치고	-10.3903
▁소설	-10.3903
▁케이	-10.3904
▁앞으로도	-10.3905
▁할머니가	-10.3912
▁병원에서	-10.3914
▁데로	-10.3919
▁제이	-10.3923
▁있으실까요	-10.3926
▁허리	-10.3932
▁장소	-10.3938
▁댄스	-10.3939
▁시대가	-10.3943
▁가족들	-10.3944
▁관광	-10.3945
▁말해서	-10.3968
▁돈은	-10.3977
▁달려	-10.3983
▁편이라서	-10.3988
▁놔	-10.399
▁하죠	-10.3991
▁액션	-10.3991
▁모르겠네	-10.3992
▁정도만	-10.3993
▁매우	-10.3995
팀	-10.3996
▁자기도	-10.3998
▁들어가면	-10.3999
▁우리한테	-10.4003
▁버는	-10.4007
▁오랜만에	-10.4007
보다도	-10.4011
▁자라	-10.4013
▁헬스장	-10.4014
▁오지	-10.4014
▁학원을	-10.4015
▁토요일	-10.4017
▁노래방	-10.4018
▁연기를	-10.4022
명이서	-10.4023
▁먹으면은	-10.4036
▁소고기	-10.4037
▁생각으로	-10.4038
▁결혼할	-10.404
▁너희는	-10.4041
▁모아서	-10.4044
▁빈	-10.4045
▁아니라서	-10.406
▁않지	-10.4065
▁군데	-10.4069
▁장기	-10.4071
▁할지	-10.4073
▁영화관	-10.4074
▁인스타	-10.408
▁홈	-10.4083
▁스마트폰을	-10.4084
▁냄새	-10.4087
탈	-10.409
▁점도	-10.4094
▁예쁘게	-10.4098
▁음악이	-10.4098
▁했다고	-10.4099
▁생겨서	-10.4105
잔	-10.4109
▁의료	-10.4111
▁지하철을	-10.4114
살이	-10.4116
▁책임	-10.4116
▁공연을	-10.4116
▁도로	-10.4117
▁정도면	-10.4121
▁오니까	-10.4121
광	-10.413
▁부부	-10.4131
자마자	-10.4131
▁운전을	-10.4134
책	-10.4136
▁사이트	-10.4138
▁느꼈	-10.4139
▁음식도	-10.414
▁준다고	-10.4145
▁붙어	-10.4146
▁좋아할	-10.4146
▁영양제	-10.415
▁목소리	-10.4153
찰	-10.4154
▁종일	-10.4154
▁식물	-10.4158
▁자랑	-10.4161
▁동남아	-10.4165
▁새벽에	-10.4166
하시고	-10.4169
하실	-10.4175
에다	-10.4175
▁머리가	-10.4183
▁이상은	-10.4183
▁물어보고	-10.4185
▁파스타	-10.4185
▁노트북	-10.4191
▁대단한	-10.4191
▁갈까	-10.4199
▁필라테스	-10.42
▁모르겠어요	-10.4205
▁했거든요	-10.4207
▁맞게	-10.421
▁기숙사	-10.421
▁능력이	-10.4223
▁청소기	-10.4228
▁모델	-10.423
▁악기	-10.4234
산이	-10.4235
▁모르게	-10.4243
▁좋으니까	-10.4249
▁좋아합니다	-10.4249
▁축의금	-10.4251
▁신기한	-10.4257
▁그럴까	-10.4261
▁메뉴	-10.4263
▁나을	-10.4274
▁어렵	-10.4274
▁클	-10.4275
▁잠을	-10.4277
▁중의	-10.428
▁처리	-10.4282
▁어떠한	-10.4289
▁봤으면	-10.4289
▁가다	-10.4289
▁마찬가지로	-10.4289
▁어머님	-10.4294
▁랩	-10.4295
른	-10.4299
▁건강이	-10.4305
▁가족끼리	-10.4306
▁환자	-10.4306
치는	-10.4308
▁2000	-10.4309
▁발달	-10.4312
▁제도	-10.4313
▁너가	-10.4322
침	-10.4333
▁전부터	-10.4334
▁하려면	-10.4336
맥	-10.4339
▁능력	-10.434
▁자신의	-10.434
▁먹다	-10.4346
▁소리를	-10.4348
▁누나는	-10.4348
▁케이티엑스	-10.4349
엑스	-10.435
움	-10.4353
▁나보다	-10.4357
▁있어서는	-10.4362
▁좋아하기	-10.4368
별	-10.4371
▁한국에서	-10.438
▁으음	-10.4382
▁화가	-10.439
▁저를	-10.439
▁벌어	-10.4394
▁결혼식을	-10.44
▁됐다	-10.44
▁동기	-10.44
▁젊었을	-10.4402
▁일하고	-10.4403
▁취미가	-10.4405
▁있으	-10.4405
시킬	-10.4411
▁퇴근	-10.4412
하진	-10.4417
▁예쁘	-10.4427
돌	-10.4428
▁영국	-10.443
▁들기도	-10.4433
▁종	-10.4433
▁요가	-10.4436
독	-10.4439
▁없다는	-10.444
▁가구	-10.4446
팅	-10.4448
▁시리즈	-10.4448
▁부산에	-10.4449
▁장면	-10.4454
왕	-10.4459
송	-10.4464
▁있대	-10.4471
▁몰라서	-10.4477
▁무대	-10.4481
▁당신이	-10.4489
록	-10.4489
▁헤	-10.4491
▁하겠지만	-10.4492
▁가야지	-10.4494
▁들어오	-10.4498
▁대출	-10.4499
▁언니랑	-10.45
▁우리의	-10.4501
▁신고	-10.4506
였거든	-10.451
▁귀찮	-10.4511
▁쉽	-10.4512
▁채널	-10.4512
▁즐겁게	-10.4515
▁상관이	-10.4516
암	-10.4517
▁도전	-10.4523
▁건강하게	-10.4526
▁하시	-10.4535
▁초등학생	-10.4537
▁위로	-10.4538
아야	-10.4539
▁나네	-10.455
▁선수들	-10.455
▁또는	-10.4553
셨는데	-10.4556
▁프랑스	-10.4556
▁놓으면	-10.4557
▁x	-10.456
▁한국에	-10.4561
▁중소기업	-10.4561
▁생각나	-10.4563
▁재미	-10.4566
셔서	-10.4567
둥	-10.457
▁급	-10.4571
▁일할	-10.4574
▁정도가	-10.4575
▁이름은	-10.4576
▁누구나	-10.4576
▁관광지	-10.4578
▁구조	-10.4581
했었는데	-10.4584
▁버리는	-10.459
▁훈련	-10.4594
▁침	-10.4603
▁생기	-10.4607
▁월급	-10.4607
클	-10.4613
이기도	-10.462
▁당뇨	-10.4621
▁나왔을	-10.4623
자를	-10.4628
보는	-10.4629
시켜	-10.4633
▁그중에	-10.4634
▁행동을	-10.4634
▁카메라	-10.4635
활	-10.4639
▁가다가	-10.4653
개를	-10.4654
▁수술을	-10.4658
▁영향	-10.4661
▁햄스터	-10.4669
▁치즈	-10.4671
▁느꼈던	-10.4672
▁있었지	-10.4675
▁업체	-10.4679
▁강의	-10.4679
▁좋아하잖아	-10.4679
원짜리	-10.4685
▁준다	-10.4689
▁긍정적인	-10.4693
▁일본에	-10.4697
▁가자고	-10.4702
▁자율	-10.4703
▁봉사	-10.4704
▁아이스크림	-10.4705
▁됐든	-10.4709
▁친정	-10.4715
▁쉽지가	-10.4715
▁넘어가	-10.4717
▁줄게	-10.4725
▁베	-10.4729
칸	-10.473
▁들으니까	-10.473
▁봐야지	-10.4734
▁밥도	-10.4738
▁시키는	-10.4738
지니까	-10.4747
▁올랐	-10.475
▁올라가는	-10.4753
▁강릉	-10.4756
▁사고가	-10.4759
명은	-10.476
극	-10.4762
▁때만	-10.4765
▁담배	-10.4769
▁오르	-10.4769
▁비가	-10.477
▁영화도	-10.4776
▁키우기	-10.4778
▁테니까	-10.478
▁마음은	-10.4783
▁펜션	-10.4783
▁올라	-10.4787
▁하기도	-10.4787
▁걔도	-10.4788
▁쌀	-10.4792
▁생산	-10.4793
▁부정적인	-10.4799
▁싹	-10.4802
▁당시에는	-10.4807
▁학교가	-10.4808
▁보기에는	-10.4809
▁받았던	-10.4814
듯	-10.4815
▁언어	-10.4822
▁오늘은	-10.4829
했다는	-10.4836
▁그동안	-10.4837
▁학습	-10.4838
▁상담	-10.4839
▁채	-10.484
▁주는데	-10.4852
베	-10.4854
▁지나	-10.486
쓰	-10.4865
▁운동하는	-10.4868
▁갔으면	-10.4871
▁빠르게	-10.4875
▁시절에	-10.4878
▁의견을	-10.4881
▁받아야	-10.4887
▁말에	-10.4889
▁들어오는	-10.4889
하셔서	-10.4894
▁일들이	-10.49
▁90	-10.4902
▁이것	-10.4903
▁다르고	-10.4903
지면	-10.4904
▁생각이야	-10.4904
▁맛있고	-10.4905
밀	-10.4911
▁낸	-10.4911
새	-10.4913
▁종목	-10.4915
▁남고	-10.4917
▁무한도전	-10.4923
▁부르고	-10.4924
▁보니까는	-10.4924
▁요렇게	-10.4925
랑은	-10.493
▁먹었	-10.4933
분의	-10.4933
▁기름	-10.4936
▁없나	-10.4938
▁애들을	-10.494
▁일자리	-10.4941
▁춤	-10.4941
하거든	-10.4942
▁짜증	-10.4943
▁아닐	-10.4945
▁전화를	-10.4947
▁편해	-10.4959
▁쌤	-10.4963
▁않았	-10.4963
리가	-10.4965
▁기기	-10.4967
▁롤	-10.4969
▁일어나서	-10.497
▁사주	-10.497
▁공유	-10.4973
▁모르지만	-10.4976
▁팝송	-10.4979
▁하라고	-10.498
▁웃기	-10.4985
▁빠른	-10.4992
▁성인	-10.4994
▁하네	-10.4998
하던	-10.4998
▁적게	-10.4998
▁휴대폰	-10.5004
킹	-10.501
▁골	-10.5011
▁시작했	-10.5014
슈	-10.5015
▁우리나라에	-10.5015
액	-10.502
▁사는데	-10.5023
▁테니스	-10.5023
▁준비하는	-10.5024
▁끝났	-10.5026
▁거다	-10.5026
▁누워	-10.5033
▁감정이	-10.5033
▁기사를	-10.5037
해가지고	-10.5039
▁그러잖아	-10.504
▁수준	-10.5042
▁좋아하게	-10.5044
▁친구들과	-10.5049
▁거네	-10.5053
득	-10.5055
▁전복	-10.5058
▁(())	-10.5059
하지만	-10.506
▁스키	-10.5065
없이	-10.5067
▁머	-10.507
▁마음도	-10.5071
▁사실상	-10.5072
▁그거랑	-10.5074
▁신청	-10.5075
▁끌고	-10.5075
▁출	-10.5075
▁어우	-10.5076
▁천천히	-10.5077
▁대해서도	-10.5083
▁시작한	-10.5083
▁소스	-10.5084
▁집으로	-10.5086
▁모자	-10.5088
▁하늘	-10.5093
줘	-10.5097
▁적응	-10.5097
군데	-10.51
▁찍는	-10.5103
▁지어	-10.5107
비를	-10.5108
▁자체	-10.5108
▁설명	-10.5109
▁속에	-10.5109
▁태국	-10.5109
▁주신	-10.5116
▁출발	-10.5118
▁남았	-10.5118
▁아이고	-10.5119
▁경기를	-10.5121
▁방향으로	-10.5125
빵	-10.5128
롱	-10.5129
▁하던	-10.5132
▁옛날부터	-10.5132
▁조건	-10.514
▁옷도	-10.5143
표	-10.5146
▁시댁	-10.5149
▁드리고	-10.515
▁세상에	-10.5154
▁플레이	-10.5156
▁누나가	-10.516
▁플러스	-10.5161
▁저렴한	-10.5163
▁좋겠다는	-10.5165
▁주시	-10.5167
▁많았는데	-10.5168
▁몰라도	-10.5172
▁좋았는데	-10.5173
▁생각하면은	-10.5176
▁설	-10.5177
▁학과	-10.5177
로서	-10.5177
▁위험한	-10.5178
▁변화	-10.519
빌	-10.5192
▁삼겹살	-10.52
▁작업	-10.5202
▁유튜버	-10.5206
▁하이	-10.5208
▁여기는	-10.5209
▁사람마다	-10.5209
하더라고요	-10.5212
▁여자가	-10.5221
▁되잖아요	-10.5229
▁분명	-10.523
▁그러기	-10.5232
▁햄버거	-10.5234
쿠	-10.5242
▁많았던	-10.5242
▁심해	-10.5247
▁키웠	-10.5249
▁모르	-10.525
▁얼	-10.5251
▁으응	-10.5253
▁리스트	-10.5259
▁19	-10.526
▁여름이	-10.5262
▁황	-10.5263
▁들었고	-10.5265
낼	-10.5269
물을	-10.5274
▁장점	-10.5275
▁밀키트	-10.528
▁했습니다	-10.5285
▁전주	-10.5287
▁제한	-10.5287
▁스마트	-10.5287
▁이러면은	-10.5291
▁버리면	-10.5299
▁정치	-10.5299
▁않기	-10.5304
번에	-10.531
▁누군가	-10.5312
▁죽어	-10.5312
▁어려울	-10.5316
▁확인	-10.5321
▁계속해서	-10.5321
▁역할	-10.5324
▁마음으로	-10.5324
▁센터	-10.5325
▁주면은	-10.5329
▁찾아보	-10.5329
▁가져가	-10.5331
▁보통은	-10.5338
▁대중교통이	-10.534
▁경제적으로	-10.5343
▁자리가	-10.535
▁마시	-10.5351
이거든	-10.5352
▁거기다가	-10.5354
▁들었어요	-10.537
▁하시고	-10.5382
▁알았	-10.539
▁드라마는	-10.5392
▁단순히	-10.5397
▁광주	-10.5399
▁않냐	-10.5399
▁해본	-10.5409
▁못해서	-10.5412
▁지인	-10.5412
▁있을지	-10.5416
▁로맨스	-10.5431
▁건조기	-10.5431
맨	-10.5434
▁오래된	-10.5437
▁나면은	-10.544
▁앞으로는	-10.5448
▁동의	-10.5456
▁어렵지	-10.5456
훈	-10.5458
▁둘이서	-10.5465
▁결	-10.5467
▁여유	-10.5471
▁키우게	-10.5472
싱	-10.5476
▁귀여운	-10.5477
▁필요하	-10.5477
한다면	-10.5487
▁넓	-10.549
▁재밌더라고	-10.5493
기만	-10.5493
▁연구	-10.5499
▁올리	-10.55
▁아이들을	-10.5502
▁엄청난	-10.5505
▁국민	-10.5506
▁노후	-10.5508
이면은	-10.551
▁택시를	-10.5513
▁전문	-10.5516
▁가잖아	-10.5522
▁칼	-10.5524
▁지구	-10.5525
▁효과	-10.5529
▁문제도	-10.5529
▁어디에	-10.553
▁우유	-10.553
▁떨어졌	-10.5531
▁토익	-10.5532
▁멀	-10.5532
▁근육	-10.5535
원을	-10.5535
▁손을	-10.5535
▁참여	-10.554
▁한번도	-10.5548
▁않았고	-10.5549
▁아는데	-10.555
▁우승	-10.555
▁판	-10.5552
▁주의	-10.5556
▁촬영	-10.5558
▁나왔어	-10.5567
▁과제	-10.5567
였어요	-10.5567
바퀴	-10.5568
몽	-10.5575
▁냉장고	-10.5576
▁유튜브에	-10.5579
▁연결	-10.5583
▁옆	-10.5587
▁않았지만	-10.5588
힌	-10.5588
▁발전소	-10.5589
▁마을	-10.5591
▁마찬가지	-10.5594
▁가볍게	-10.5596
▁있었을	-10.5597
▁계기가	-10.5609
▁에어컨	-10.561
▁손이	-10.5615
▁디저트	-10.5618
한테는	-10.5623
분을	-10.5625
했어요	-10.5626
▁잘할	-10.5626
▁맞았	-10.5627
▁상관없	-10.5628
▁아빠도	-10.563
▁천	-10.5631
들에게	-10.5631
▁끼고	-10.5634
▁나가야	-10.5638
▁가격도	-10.5642
▁얼굴이	-10.5649
▁알다시피	-10.5655
▁기구	-10.5656
▁뉴스에	-10.5667
▁인식이	-10.5667
▁그것은	-10.5668
리를	-10.5671
▁벌고	-10.5674
휴	-10.5675
량이	-10.5676
▁들었을	-10.5678
▁배송	-10.569
▁한두	-10.569
▁말라고	-10.569
딩	-10.5693
▁졸업하고	-10.5695
▁필요는	-10.5696
▁동물이	-10.5698
▁금액이	-10.57
▁재밌었어	-10.57
00	-10.5707
▁지난번에	-10.5707
기로	-10.5715
▁병원을	-10.5717
▁어디가	-10.572
▁자녀	-10.5722
▁이러한	-10.5727
▁독일	-10.5731
▁나가면	-10.5736
▁가능한	-10.5737
들에	-10.5739
▁대중	-10.5743
▁못할	-10.5744
▁오기	-10.5748
▁남자가	-10.5748
▁송	-10.575
▁카톡	-10.5754
▁세상	-10.5764
▁해주	-10.5766
지마는	-10.5769
풍	-10.577
▁한식	-10.5777
▁자체는	-10.5779
▁홀	-10.5781
▁취향	-10.5784
▁즐기	-10.5788
▁부족한	-10.5789
▁전철	-10.58
▁어딜	-10.5803
였지	-10.5803
▁맞는데	-10.5808
▁크리스마스	-10.5809
답	-10.5812
▁지나고	-10.5814
▁크기	-10.5816
▁판매	-10.5824
▁느껴지는	-10.5826
▁주세요	-10.5829
▁좋을까	-10.5832
았던	-10.5833
▁팔아	-10.5836
례	-10.584
▁숨	-10.5844
▁열어	-10.5848
▁비대면으로	-10.5853
▁폐지	-10.5857
밭	-10.586
▁리그	-10.5871
▁챗지피티	-10.5874
▁단지	-10.5875
▁자체도	-10.5877
렁	-10.5879
▁운	-10.5883
▁인간이	-10.5888
▁의외로	-10.589
▁움직이는	-10.5892
압	-10.5899
▁사이즈	-10.5903
▁외에는	-10.5905
▁있었거든요	-10.5906
▁내려가	-10.5907
끄	-10.5908
▁숙박	-10.5908
▁동네에	-10.5908
▁방식	-10.5909
▁업	-10.5909
물이	-10.591
▁특정	-10.5912
▁초반	-10.5913
▁자격증이	-10.5914
▁따라가	-10.5919
이를	-10.5921
▁본인의	-10.5921
콘	-10.5922
▁세워	-10.593
▁용	-10.5932
▁물리	-10.5941
▁가수가	-10.5942
▁사람에	-10.5942
▁알기로는	-10.5943
▁소개	-10.5947
▁주에	-10.5948
▁선호	-10.5952
▁사귀	-10.5953
▁자리를	-10.5953
▁떨어지	-10.5954
▁가질	-10.596
▁바꾸	-10.596
▁기본적인	-10.5963
▁왕	-10.5964
빙	-10.5964
▁스토리	-10.5967
▁해산물	-10.5967
년대	-10.5968
▁매번	-10.5968
▁이혼	-10.5969
▁하도	-10.5971
랄	-10.5971
▁빨래	-10.5972
▁키우면서	-10.5972
▁관계를	-10.5976
▁궁금하	-10.5977
▁진로	-10.5978
▁판단	-10.598
▁말로	-10.5983
▁가요	-10.5983
▁뇌	-10.5984
▁시간은	-10.5985
▁뜻	-10.5988
▁잘못된	-10.5991
▁용돈	-10.5993
▁이미지	-10.5994
▁운영	-10.5999
▁공부도	-10.6002
▁일요일	-10.6004
▁문제를	-10.6007
▁중학생	-10.6015
갑	-10.6021
▁연극	-10.6022
▁줄어들	-10.6022
▁생기면	-10.6022
▁홍	-10.6041
▁버리	-10.6042
▁보거나	-10.6042
▁좋아했는데	-10.6046
▁이름을	-10.6048
▁채워	-10.6052
▁과정이	-10.6054
황	-10.6054
▁잡는	-10.6055
닥	-10.6064
▁놀라	-10.6065
규	-10.6066
▁거긴	-10.6073
▁아래	-10.6073
자리	-10.6075
▁사람들과	-10.6076
▁짐	-10.608
▁친하게	-10.6085
시를	-10.6085
▁주실	-10.6097
▁이용할	-10.6099
▁게임이	-10.61
▁당신은	-10.6101
▁있으면서	-10.6103
▁아이들은	-10.6108
▁만났	-10.6109
▁내용을	-10.6111
▁공장	-10.6113
▁실수	-10.6114
▁자유롭게	-10.6116
▁일본에서	-10.6117
▁힘들다	-10.6119
▁산다	-10.6119
혜	-10.612
▁거북이	-10.612
었다고	-10.6121
▁신뢰	-10.6124
▁지능	-10.6128
▁실망	-10.6128
보면	-10.6131
▁탁구	-10.6139
▁전체	-10.614
▁표	-10.6141
▁국물	-10.6141
▁대비	-10.6143
했지	-10.6147
▁여름에는	-10.6147
▁보내는	-10.6151
▁물이	-10.6157
▁살아가는	-10.6158
▁건강한	-10.6161
▁되지만	-10.6165
빛	-10.6165
▁이벤트	-10.6168
▁시내	-10.617
▁특이한	-10.6172
▁예상	-10.6172
▁어렵고	-10.6175
상을	-10.6177
▁알아보	-10.6177
▁갈아	-10.6178
▁대학원	-10.6178
▁들어갔	-10.6178
▁시키고	-10.6179
▁힐링	-10.6179
▁떡	-10.618
▁전체적으로	-10.6181
▁같으면	-10.6183
▁좋아하세요	-10.6184
▁씨가	-10.6186
쳤	-10.6188
▁거처럼	-10.6189
병이	-10.6189
▁비교	-10.619
▁서서	-10.6192
xx	-10.6194
▁이용해	-10.6204
▁고통	-10.6206
▁어린이집	-10.6207
▁먹이	-10.6207
▁비슷하	-10.621
▁들지	-10.6211
▁화면	-10.6215
▁님은	-10.6217
▁예쁘고	-10.6217
탑	-10.622
▁뭐든지	-10.6221
▁어울리는	-10.6222
▁현실적으로	-10.6226
▁반복	-10.6228
▁반대하는	-10.6229
▁한강	-10.6232
▁우정이	-10.6235
▁그러나	-10.6235
▁빠지는	-10.6237
주가	-10.6238
▁쓰면	-10.6238
▁택배	-10.6242
▁그러더라고요	-10.6243
야겠다	-10.6247
▁버려	-10.6249
▁치면	-10.6254
▁적당히	-10.6255
▁응원	-10.6256
▁사람들에게	-10.6256
명을	-10.6257
▁바라	-10.6258
▁앨범	-10.6258
▁생각하니까	-10.626
▁분양	-10.6262
▁대형	-10.6263
▁쟤	-10.6267
▁없었	-10.627
▁그림을	-10.6276
함이	-10.6281
▁갔잖아	-10.6286
▁광	-10.6292
▁단기	-10.6294
▁제품을	-10.6297
▁완	-10.6299
▁어떻게든	-10.63
짓	-10.6307
▁성격은	-10.6308
▁해야겠다	-10.6309
▁사용하고	-10.6309
▁들었거든	-10.6311
▁넓은	-10.6313
▁겨울이	-10.6315
인이	-10.6317
▁욕심	-10.6318
▁맛을	-10.632
▁손님	-10.632
▁사료	-10.632
▁봐야겠다	-10.6327
해지고	-10.633
으로서	-10.6331
스를	-10.6332
▁배구	-10.6334
▁언론	-10.6334
▁공부하는	-10.6335
▁눈을	-10.6338
▁패키지여행	-10.634
▁있다라고	-10.634
▁돈가스	-10.6344
▁탁	-10.6345
▁같던데	-10.6346
▁대학생	-10.6347
▁정상	-10.6347
▁좋다는	-10.6348
▁외모	-10.6349
▁재료	-10.6352
▁급식	-10.6362
징	-10.6363
▁부른	-10.6363
필	-10.6365
▁심리	-10.6365
▁체크	-10.6366
▁오에스티	-10.6369
▁이랬는데	-10.6372
▁이전에	-10.6374
▁희망	-10.6374
▁공감을	-10.6383
라면은	-10.6384
주면	-10.6385
▁학생들이	-10.6386
▁남녀	-10.6389
주를	-10.6396
▁되겠지	-10.6399
▁학생들	-10.6405
▁노동	-10.6407
▁설거지	-10.6407
▁나한테는	-10.6407
했거든	-10.6409
▁찬	-10.641
▁마리	-10.6413
▁생명	-10.6413
겠다고	-10.6414
큐	-10.6418
▁많았어	-10.6418
▁설치를	-10.6419
찬	-10.642
▁강아지도	-10.6424
▁도움	-10.6428
▁장애인	-10.643
▁저번	-10.6431
▁내야	-10.6432
▁반대를	-10.6433
▁시작해서	-10.6435
▁층간	-10.6435
▁16	-10.6438
▁내리	-10.6438
▁언	-10.6441
▁배웠	-10.6444
▁취향이	-10.6444
▁맛집이	-10.6448
▁죽는	-10.6449
▁웃긴	-10.6453
▁했었어요	-10.6453
▁싶거든	-10.6457
▁슬	-10.6458
▁무료	-10.6458
능	-10.6473
▁들면은	-10.6476
빈	-10.6478
▁선배	-10.648
▁나이를	-10.6485
▁드네	-10.6497
▁우선은	-10.65
▁사용할	-10.6503
▁하신	-10.6507
▁결혼은	-10.6508
▁사려고	-10.651
▁시대에	-10.6512
▁산에	-10.6515
▁해외에서	-10.6516
만원	-10.6519
▁혈액형	-10.652
께서	-10.6523
▁쇼	-10.6526
▁유튜브로	-10.6526
▁영향이	-10.6527
▁하기는	-10.653
▁사게	-10.653
▁날에	-10.6536
▁중에는	-10.6537
▁건가요	-10.6538
존	-10.654
▁그랬지	-10.654
▁떨어지고	-10.6542
지만은	-10.6542
▁고려	-10.6543
▁됐지	-10.6545
▁그쵸	-10.6546
▁장면이	-10.6548
변	-10.6551
▁가격을	-10.6551
▁계단	-10.6555
▁간호사	-10.6557
▁다녔던	-10.6557
▁힘을	-10.6561
냉	-10.6573
▁직	-10.6575
▁않더라고요	-10.6577
▁고양이도	-10.6579
▁마스크를	-10.658
▁봤거든요	-10.658
▁똥	-10.658
▁보거든	-10.6581
▁외에	-10.6582
▁들어와서	-10.6582
순위	-10.6586
들이랑	-10.6588
▁웨딩	-10.659
▁엘지	-10.6594
▁검색	-10.6597
▁같네	-10.6597
▁감성	-10.66
겁	-10.6606
▁상품	-10.6608
▁종종	-10.661
▁주셨	-10.661
▁빨	-10.6613
▁공부하고	-10.6616
▁아버님	-10.662
묘	-10.6621
▁친구들끼리	-10.6622
▁롯데	-10.6624
마는	-10.6626
▁드니까	-10.6629
▁없습니다	-10.6631
구나라는	-10.6632
▁그러네	-10.6632
죽	-10.6632
▁정책	-10.6632
▁샐러드	-10.6636
찜	-10.6638
▁주면서	-10.6644
일까	-10.6646
놈	-10.6649
▁콩	-10.6655
▁의지	-10.6659
▁한다든지	-10.666
▁과자	-10.6663
▁시스템	-10.6664
▁검진	-10.6666
▁성인이	-10.6667
▁자취를	-10.6668
▁애기	-10.6672
되면	-10.6686
▁아이패드	-10.6691
▁라인	-10.6691
들이나	-10.6699
▁시청	-10.6702
틀	-10.6706
▁제작	-10.6707
▁보기도	-10.6709
▁끓여	-10.6709
▁힘들다고	-10.6711
▁나오더라고	-10.6711
▁남들	-10.6713
▁내내	-10.6716
▁장례식	-10.6728
▁걸리는	-10.6729
▁되겠네	-10.6733
▁갈수록	-10.6735
▁휴가를	-10.6738
▁하든	-10.6739
▁선생님께서는	-10.6741
하려면	-10.6746
▁호주	-10.6755
▁미래에	-10.6755
▁고르	-10.6759
▁새끼	-10.676
▁전달	-10.676
▁주시고	-10.6761
놀이	-10.6763
▁깊은	-10.6763
▁걱정을	-10.6766
▁좋아하긴	-10.677
▁빌라	-10.6773
▁발견	-10.6773
▁개봉	-10.6778
▁달리	-10.6778
할까	-10.678
▁맛있다고	-10.6784
▁맛집을	-10.6788
▁체력	-10.679
개가	-10.6791
동에	-10.6796
▁올라오	-10.6799
▁검색을	-10.6801
앤	-10.6803
▁유형	-10.6803
▁거기다	-10.6804
▁내서	-10.6811
얼	-10.6814
▁즐기는	-10.6817
▁브랜드가	-10.6818
▁추세	-10.6823
으니깐	-10.6826
▁눈치	-10.6827
▁유명	-10.6828
▁먹잖아	-10.683
▁감자	-10.6832
▁13	-10.6838
▁느낌도	-10.6841
▁확실하게	-10.6844
▁상황을	-10.6849
▁주식이	-10.6849
▁클래식	-10.685
들끼리	-10.6851
▁생각했어	-10.6852
▁가족들이랑	-10.6853
톤	-10.6855
금을	-10.6856
▁꾸	-10.6859
▁땀	-10.6865
▁않거든	-10.6867
▁데이트	-10.6868
겠	-10.687
었다	-10.687
▁초밥	-10.6875
▁직원	-10.6881
▁아파트가	-10.6884
▁주차	-10.6884
▁공기업	-10.6886
▁자살	-10.6888
▁이어	-10.6891
▁원씩	-10.6892
▁키운	-10.6893
▁해주고	-10.6894
▁연주	-10.6894
▁하냐	-10.6898
▁어른들	-10.6899
룰	-10.6903
부터는	-10.6908
▁결혼한	-10.6909
욕	-10.691
▁임	-10.691
▁바뀌는	-10.6913
▁해라	-10.6915
꼽	-10.6919
▁음식물	-10.6927
▁표현을	-10.693
▁사니까	-10.6931
▁영업	-10.6932
▁책이	-10.6939
▁자전거를	-10.694
▁질병	-10.694
▁태	-10.6944
▁주식은	-10.6946
▁사다	-10.6951
▁개념	-10.6952
▁했다가	-10.6964
▁아파서	-10.6965
▁공격	-10.697
▁돼지고기	-10.6973
▁형태	-10.6973
솔	-10.6974
▁겸	-10.6988
▁좋더라	-10.6989
▁쪼	-10.6991
▁좋아하거든요	-10.6996
▁겨울에는	-10.6996
▁주인공이	-10.6997
▁결정을	-10.6998
소리	-10.7003
하지는	-10.7003
▁지역이	-10.7003
▁폐	-10.7004
▁카카오	-10.7006
▁맛있었어	-10.7008
라기보다는	-10.7014
윤	-10.7015
▁평가	-10.7016
▁불안	-10.7016
▁돌아	-10.7022
짜	-10.7024
▁이젠	-10.7026
▁인터넷에서	-10.7027
▁못했던	-10.7029
시까지	-10.7029
▁계산	-10.7031
▁질문을	-10.7034
▁오픈	-10.7039
▁스마트폰이	-10.7039
벨	-10.7044
▁싶었	-10.7053
▁취미로	-10.7055
▁싸고	-10.7056
으신	-10.7058
▁느	-10.706
▁선생님들이	-10.7061
둬	-10.7063
▁여기에	-10.7063
▁아니요	-10.7064
▁키가	-10.7064
▁왔던	-10.7067
▁가려	-10.7074
▁비티에스	-10.7076
▁커플	-10.7078
▁하니	-10.7086
▁정부	-10.7087
▁함	-10.7091
▁설명을	-10.7092
▁있냐	-10.7092
▁전문가	-10.7095
▁이렇	-10.7097
떡	-10.7098
▁편하	-10.7104
▁행복한	-10.7106
▁신랑이	-10.711
▁목적	-10.7113
▁정부에서	-10.7113
▁실내	-10.7115
▁팀이	-10.7115
▁친구의	-10.7116
▁이뻐	-10.7116
번째	-10.7121
▁하러	-10.7123
▁의견이	-10.7127
▁마무리	-10.713
▁강아지들	-10.7136
▁성적	-10.714
▁구입	-10.7143
▁있네	-10.7144
▁싶었어	-10.7145
회를	-10.715
▁몰래	-10.7151
▁풍경	-10.7153
자는	-10.7156
삭	-10.7159
▁토끼	-10.716
▁며느리	-10.7161
▁교사	-10.7162
▁따고	-10.7163
▁습	-10.7165
일로	-10.7167
▁방문	-10.7172
▁이때	-10.7177
힐	-10.7178
▁심한	-10.718
▁졸	-10.7184
▁정도를	-10.7184
▁체력이	-10.7185
▁영화관에서	-10.7187
▁대한민국	-10.7188
했습니다	-10.7199
과를	-10.7199
▁콘텐츠	-10.7202
▁이쁘	-10.7206
기보다는	-10.7209
▁알겠어	-10.721
▁돌아가셨	-10.7215
▁새우	-10.7215
▁점에서	-10.7215
했단	-10.7216
▁다를	-10.7221
▁오디션	-10.7223
▁주시는	-10.7223
▁들려	-10.7227
▁낙	-10.7235
▁먹거나	-10.7237
▁스무	-10.7241
하자	-10.7242
▁나지	-10.7242
▁사생활	-10.7242
▁나라가	-10.7242
싸움	-10.7248
▁매일매일	-10.7249
련	-10.7251
▁들어와	-10.7253
바이	-10.7254
▁페이	-10.7255
▁힘들더라고	-10.7263
▁말이에요	-10.7264
▁관람	-10.7265
▁들거든	-10.7268
▁개선	-10.7271
▁들면서	-10.7273
꼬	-10.7276
▁하셨	-10.7276
▁전시	-10.7278
▁편안하게	-10.7281
▁곳으로	-10.7283
▁그분	-10.7283
▁야구를	-10.7285
▁상대방	-10.7286
▁입학	-10.729
▁취미를	-10.7291
▁정리를	-10.7292
▁멤버	-10.7293
))	-10.7294
▁((	-10.7294
법을	-10.7294
취	-10.7299
와서	-10.7303
▁수학여행	-10.7304
▁종교	-10.7308
▁나오기	-10.731
▁대표	-10.7312
▁무시	-10.7313
▁되었	-10.7313
▁구분	-10.7314
▁연습을	-10.7318
▁몰	-10.732
뼈	-10.7327
▁많았고	-10.7329
▁핫	-10.733
▁하겠지	-10.7332
▁윤	-10.7335
다기보다는	-10.7335
▁쥐	-10.7336
▁소개팅	-10.7337
▁다니기	-10.7337
▁소금	-10.734
▁놀았	-10.734
▁배경	-10.7342
▁여보	-10.7349
년도	-10.7349
릿	-10.7352
드려	-10.7354
▁감정을	-10.7356
▁북	-10.7358
▁틀리	-10.7359
▁유산소	-10.7359
▁끝나면	-10.736
▁외국인	-10.736
▁없잖아요	-10.7361
▁콘서트를	-10.7361
▁정확한	-10.7362
▁했기	-10.7362
▁그쪽에서	-10.7364
▁싶다라는	-10.7372
아이	-10.7377
▁스페인	-10.7379
▁집값이	-10.7386
▁귀엽	-10.739
▁스트레스가	-10.7392
인데도	-10.7396
▁슬픈	-10.7398
겠습니다	-10.7399
다리	-10.7402
▁의식	-10.7402
▁무섭	-10.7403
▁거란	-10.7409
▁빠	-10.741
▁빠진	-10.7411
흐	-10.7412
▁계곡	-10.7412
한테도	-10.7415
▁되겠	-10.7416
▁국어	-10.7417
▁슬프	-10.7419
▁있게끔	-10.7419
▁전공을	-10.742
▁있다라는	-10.7424
▁그렇다면	-10.7426
▁버스는	-10.7429
▁많으면	-10.7431
자면	-10.7431
폭	-10.7431
하라	-10.7435
▁일에	-10.7437
▁눈으로	-10.7441
▁됐으면	-10.7445
▁떠나서	-10.7446
▁물에	-10.7446
▁있더라	-10.7448
▁빌려	-10.7449
시키는	-10.7449
▁학교는	-10.745
▁간단한	-10.7454
▁바꿀	-10.7461
▁쿠폰	-10.7464
▁넘어서	-10.7466
▁살다가	-10.7468
▁없애	-10.7475
▁억지로	-10.7484
▁포인트	-10.7485
▁쳤	-10.7489
▁올해는	-10.7491
▁추워	-10.7497
▁패딩	-10.75
▁되냐	-10.75
▁장비	-10.7501
▁에너지를	-10.7501
느	-10.7502
▁눈물	-10.7504
▁멋있	-10.7505
▁합격	-10.7505
▁쓰기	-10.7505
▁떨어진	-10.7507
10	-10.7509
▁쓰게	-10.751
과는	-10.751
깔	-10.7512
▁의사가	-10.7512
▁미래	-10.7513
▁부족	-10.7514
▁그럼에도	-10.7516
▁나서는	-10.7521
▁아쉬워	-10.7527
▁10000	-10.7529
▁거래를	-10.753
▁사용해	-10.7533
▁같진	-10.7534
▁보이지	-10.7539
▁정해진	-10.7541
▁받으면	-10.7547
▁그랬었는데	-10.7548
▁주거	-10.7549
▁텔레비전	-10.755
▁자는	-10.7551
▁왜냐면은	-10.7551
▁24	-10.7553
▁하진	-10.7555
▁대학교를	-10.7555
탁	-10.7557
▁있던데	-10.7564
▁양식	-10.7564
삼	-10.7569
▁배려	-10.757
봐야	-10.7571
▁가깝	-10.7571
▁하고요	-10.7575
▁이성	-10.7576
곳	-10.758
▁나이키	-10.7587
▁공항	-10.7588
▁직종	-10.7588
깊	-10.7594
▁좋잖아	-10.7595
▁물건이	-10.7596
▁연예인이	-10.7597
▁키우면	-10.7598
▁3000	-10.7599
▁김장	-10.7602
▁몰랐어	-10.7609
귀	-10.7612
▁간의	-10.7612
잉	-10.7613
▁힘드니까	-10.7615
▁가든	-10.7615
▁영역	-10.7615
▁자세히	-10.7619
▁다녀야	-10.7626
▁했나	-10.7628
▁친척	-10.763
▁편집	-10.7631
▁부분에서는	-10.7632
해야지	-10.7632
▁원이	-10.7634
▁가상	-10.7634
▁연봉	-10.764
▁아이돌이	-10.7645
었습니다	-10.7646
▁된대	-10.7648
▁기초	-10.765
▁사이가	-10.7651
▁창	-10.7654
▁어른	-10.7655
▁예전부터	-10.7657
▁생각하	-10.7658
▁짓	-10.7659
▁주더라고	-10.7659
▁맛도	-10.766
▁남편은	-10.7665
▁그렇잖아	-10.7665
하고는	-10.7667
▁동의를	-10.7669
▁사과	-10.7671
▁남들이	-10.7674
▁가본	-10.7675
▁스타	-10.7675
▁유기견	-10.7677
▁계열	-10.7677
▁곳도	-10.7679
▁한편으로는	-10.768
▁케이팝	-10.768
▁미용	-10.7681
▁모양	-10.7683
▁일어나는	-10.7684
▁경험해	-10.7684
그릇	-10.7687
▁잡아서	-10.7689
▁군대를	-10.769
▁500	-10.769
▁맞아서	-10.7693
▁경험은	-10.7697
▁검	-10.7698
다면은	-10.7701
▁매력이	-10.7707
▁주려고	-10.7708
▁기능이	-10.7711
▁발전을	-10.7711
기에	-10.7711
▁단체	-10.7712
▁독립	-10.7714
볼까	-10.7715
▁놀랐	-10.7716
▁아이들한테	-10.7719
▁조리	-10.7721
▁플랫폼	-10.7721
▁박물관	-10.7724
▁강화	-10.7726
까지만	-10.7735
▁따뜻한	-10.7738
▁원을	-10.7743
▁도와	-10.7744
▁스리	-10.7747
▁뻔	-10.7754
▁필요하다	-10.7755
▁기관	-10.7756
▁아파트에	-10.7756
▁개념이	-10.7757
스타	-10.7759
▁전원주택	-10.7765
▁거구나	-10.7768
▁300	-10.7769
▁왔잖아	-10.777
▁살면	-10.7776
▁없네	-10.7777
▁심하게	-10.7778
혈	-10.7779
용으로	-10.7782
▁런닝맨	-10.7785
▁선택할	-10.7789
▁도대체	-10.7796
▁감기	-10.7801
이었고	-10.7803
▁마이너스	-10.7804
▁적용	-10.7806
▁선생님도	-10.7807
▁사장님이	-10.7807
▁척	-10.7809
▁보드	-10.781
▁만들었	-10.7813
▁실력이	-10.7816
놔야	-10.7818
일이	-10.7822
부를	-10.7822
가루	-10.7824
▁고마워	-10.783
시가	-10.7836
▁타임	-10.7843
▁선생님들	-10.7844
▁우리나라도	-10.7845
▁퍼	-10.7848
께	-10.7849
폐	-10.785
▁청약	-10.785
▁원전	-10.7856
▁한다거나	-10.7864
▁크지	-10.7866
▁기다리고	-10.7872
▁마음대로	-10.7872
▁후반	-10.7872
▁중요하다	-10.7873
▁사업을	-10.7875
▁계약	-10.788
▁오래됐	-10.788
튼	-10.7881
▁홍보	-10.7882
▁먹자	-10.7883
▁파티	-10.7884
▁보지는	-10.7885
▁적어	-10.7899
감을	-10.7901
▁김밥	-10.7902
효	-10.7904
가요	-10.7906
▁담임	-10.7906
▁돌아다니	-10.7906
▁자제	-10.7909
▁시켜서	-10.791
▁너처럼	-10.7912
▁좋아한다	-10.7914
▁걸린	-10.7915
▁내에서	-10.7917
▁뭐였지	-10.792
이어	-10.7925
트리	-10.793
▁거짓말	-10.794
풀	-10.7943
▁느껴지	-10.7944
▁입양	-10.7946
▁먹었을	-10.7947
▁인형	-10.7952
▁시작하는	-10.7953
▁말아야	-10.7953
▁문을	-10.7954
▁기준	-10.7962
▁걸어가	-10.7963
▁달라지	-10.7963
▁지나가	-10.7967
▁인구	-10.7969
▁관절	-10.7969
▁일부	-10.7973
▁보조제	-10.7973
세대	-10.7974
갈비	-10.7976
▁중요하지	-10.798
율	-10.7982
▁올라갔	-10.7983
▁몰랐	-10.7985
▁하기에는	-10.7987
식을	-10.7989
▁어르신들	-10.7989
▁생각난	-10.7997
▁오는데	-10.7997
▁좋으면	-10.7998
▁폰	-10.8
▁봤더니	-10.8002
▁걸리고	-10.8003
집을	-10.8004
▁선수들이	-10.8005
▁있으신지	-10.8006
▁날은	-10.801
번쯤은	-10.8016
▁인간관계	-10.802
▁과정에서	-10.802
▁소화	-10.8022
▁지낼	-10.8026
원에서	-10.8027
셨어요	-10.8028
어도	-10.8029
▁사지	-10.8032
▁공공	-10.8046
▁실력	-10.8053
▁나빠	-10.8058
▁풍	-10.8059
▁맛있더라고	-10.8064
▁힘든데	-10.8065
낸	-10.8066
▁소주	-10.8066
폴	-10.8072
▁빠졌	-10.8077
▁젤	-10.8081
▁그땐	-10.8082
▁불편해	-10.8088
▁해보	-10.8091
내는	-10.8091
▁무리가	-10.8092
▁감사	-10.8096
▁좋아한다고	-10.8102
▁해외여행을	-10.8103
▁형제	-10.8103
▁온천	-10.8106
▁결혼에	-10.8107
▁아니기	-10.8107
▁가지를	-10.8108
▁했었지	-10.8108
▁이거에	-10.8109
▁오티티	-10.8111
일을	-10.8112
▁오른	-10.8112
▁옮겨	-10.8114
▁매력	-10.8114
▁온다	-10.8118
▁반려	-10.812
▁폭	-10.8123
▁양이	-10.8128
▁월드컵	-10.8128
▁출산	-10.8129
▁좋아했어	-10.813
▁날짜	-10.8132
000	-10.8135
▁북한	-10.814
▁영화나	-10.8146
▁드신	-10.8147
▁옷은	-10.8148
▁모시고	-10.815
▁먹어요	-10.815
▁홍대	-10.815
▁교수님이	-10.8151
▁걔네들	-10.8152
▁기계가	-10.8158
▁티브이에	-10.8162
▁즐기고	-10.8163
▁제주도에	-10.8164
기고	-10.8167
▁강한	-10.8168
▁속도	-10.8168
▁의자	-10.8169
▁이루	-10.8171
▁문제인	-10.8172
▁수업이	-10.8172
▁웬만한	-10.8174
▁뷔페	-10.8185
▁파악	-10.8187
해지는	-10.8188
▁속이	-10.8188
▁결제	-10.8191
▁사람인데	-10.8193
▁크림	-10.8194
▁앞서	-10.8196
▁간다면	-10.8197
옥	-10.8199
▁기다려	-10.8199
▁이슈	-10.82
▁한동안	-10.8202
짐	-10.8204
▁다닌	-10.8208
▁생활에	-10.8212
▁시스템이	-10.8212
▁살을	-10.8214
▁한국인	-10.8215
▁들어온	-10.8215
▁차려	-10.8219
▁개는	-10.8229
▁근육이	-10.8229
하겠다	-10.823
▁전에도	-10.823
▁과거	-10.8236
스가	-10.8237
▁잡았	-10.8238
▁문과	-10.8244
▁받았는데	-10.8244
▁시기가	-10.8244
주의	-10.8248
▁고구마	-10.8249
▁러닝	-10.8249
▁많이들	-10.8249
▁운동화	-10.825
치를	-10.825
▁비싸지	-10.8252
▁제목이	-10.8252
▁남의	-10.8253
▁담당	-10.8253
▁마라	-10.8256
▁굴	-10.8257
▁사이에서	-10.8257
▁것들에	-10.826
▁지하	-10.8265
▁브랜드를	-10.8266
▁좋아하시	-10.827
▁저렴하게	-10.8278
았는데	-10.8279
▁운동하고	-10.8281
▁제품이	-10.8285
▁돌아가	-10.8285
대에	-10.8286
▁치료를	-10.829
냥	-10.8291
▁계시는	-10.8294
▁푸	-10.8294
▁또래	-10.8294
▁자세	-10.8295
▁미디어	-10.8295
▁손으로	-10.8301
▁월세	-10.8302
▁때랑	-10.8305
▁폭력	-10.8306
자들이	-10.8312
▁드리	-10.8315
먼	-10.8316
▁가지가	-10.8317
▁와이프	-10.8319
▁겪어	-10.832
늘	-10.832
▁없더라고요	-10.8322
역에서	-10.8324
났	-10.8324
▁올라갈	-10.8328
▁타야	-10.8331
▁보낼	-10.8331
에선	-10.8335
▁색깔이	-10.8336
▁추운	-10.8337
콜	-10.8338
▁올리는	-10.8341
상으로	-10.8344
▁불렀	-10.8348
▁입원	-10.835
▁고거	-10.8354
하라고	-10.8355
▁제주도를	-10.8357
▁꺼내	-10.8358
장에	-10.836
▁기다리	-10.8362
▁도입	-10.8362
▁올라가고	-10.8368
▁바꾸고	-10.8377
굴	-10.8378
▁사람들하고	-10.8379
했었던	-10.8381
하듯이	-10.8382
선을	-10.8394
▁25	-10.8404
▁데이터	-10.8409
▁커피를	-10.8411
▁같더라	-10.8411
▁세탁기	-10.8411
▁초반에	-10.8412
▁어울리	-10.8412
▁해주는	-10.8413
▁싫어해	-10.8414
▁얘기하니까	-10.8415
▁행복	-10.8416
▁싫어서	-10.842
데요	-10.8424
심이	-10.8425
▁줘도	-10.843
▁좋아하다	-10.843
누	-10.843
▁만났을	-10.8432
▁담아	-10.8432
센	-10.8433
▁올라가서	-10.8441
▁다르니까	-10.8445
▁사회가	-10.8446
▁챙기	-10.8447
분들	-10.8452
▁도서관	-10.8453
▁세금	-10.8454
▁냉면	-10.8455
▁에이아이를	-10.8456
▁큰일	-10.846
었나	-10.8462
▁필요하지	-10.8466
하시면	-10.8469
▁측면에서	-10.8473
▁빠지고	-10.8475
▁영양	-10.8475
▁사면은	-10.8476
팩	-10.8476
▁스포츠를	-10.8476
슨	-10.8478
▁그래갖고	-10.848
▁걸어서	-10.8484
▁다르지	-10.8485
▁문자	-10.8487
거야	-10.8488
▁농	-10.8489
▁멀어	-10.8492
▁감동	-10.8494
바닥	-10.8494
▁오면서	-10.8497
▁어떠세요	-10.8498
▁있어가지고	-10.85
▁어깨	-10.85
달라고	-10.8506
▁목표가	-10.8508
닝	-10.851
▁얼굴을	-10.8512
▁됐잖아	-10.8514
▁목표를	-10.8514
▁없긴	-10.8514
▁마지막으로	-10.8514
▁다리가	-10.8518
▁긍정적으로	-10.852
▁케이크를	-10.8523
▁방에	-10.8523
▁필	-10.8523
▁레저	-10.8524
▁모를	-10.8526
▁가기로	-10.8527
▁않습니다	-10.8527
▁고객	-10.8528
▁영어를	-10.8534
▁자기네	-10.854
▁반려동물이	-10.854
▁얘기하면	-10.854
▁십	-10.8542
▁글을	-10.8544
▁주위	-10.8547
▁봤었어	-10.8549
▁사람하고	-10.855
▁난다	-10.8551
▁입시	-10.8555
▁이상이	-10.8556
뜨	-10.8557
트를	-10.8561
▁가이드	-10.8561
▁똑같아	-10.8564
▁가치가	-10.8566
▁사회에서	-10.8568
▁여전히	-10.8571
▁쪽도	-10.8572
분은	-10.8574
▁어른들이	-10.8575
이네	-10.8576
▁추천하고	-10.8579
▁데려가	-10.8583
하니	-10.8585
▁즐거운	-10.8586
▁가보	-10.8586
▁맛은	-10.8587
인데요	-10.8588
▁겁니다	-10.8589
▁듣다	-10.8591
▁주행	-10.8597
▁바다가	-10.8601
▁보셨	-10.8607
▁지나면	-10.8613
뿐이	-10.8613
▁것이고	-10.8619
▁애는	-10.8619
▁목소리가	-10.862
드는	-10.862
▁적당한	-10.8623
▁인턴	-10.8624
▁신선	-10.8625
▁걔네들이	-10.8626
▁어떡해	-10.8632
▁성적이	-10.8635
▁스위스	-10.8637
려면은	-10.8641
▁동료	-10.8646
아웃	-10.8646
▁된다면은	-10.8648
▁가능성이	-10.8654
▁정보가	-10.866
▁출연	-10.8661
찌	-10.8663
▁종합	-10.8664
▁수도권	-10.8666
▁바람이	-10.867
▁실질적으로	-10.8675
▁한단	-10.8677
▁하실	-10.8681
▁인생을	-10.8684
▁버린	-10.8685
▁부담스럽	-10.8689
어가지고	-10.8699
▁분도	-10.8699
▁책상	-10.87
▁블로그	-10.8704
▁갖게	-10.8707
▁부모가	-10.8709
▁가격에	-10.8709
▁선생님한테	-10.8712
▁예약을	-10.8714
▁징벌적	-10.8715
으러	-10.8725
▁보라고	-10.8726
▁면도	-10.8728
▁초대	-10.8728
▁감독이	-10.8729
▁수입	-10.8733
객	-10.8736
▁상태로	-10.874
▁안정	-10.874
▁녹	-10.8745
▁김치찌개	-10.8745
▁일어날	-10.8745
▁수원	-10.8747
▁힘들었어	-10.8747
▁청소를	-10.8747
▁싶더라고	-10.8749
▁마켓	-10.875
들과	-10.8756
▁있었습니다	-10.8758
시장	-10.8761
▁그전에는	-10.8762
▁요거	-10.8762
▁창문	-10.8762
▁서로가	-10.8763
지게	-10.8764
▁뭔데	-10.8769
시면	-10.8769
원인가	-10.8769
▁바뀌어	-10.877
▁실패	-10.8773
▁빠르	-10.8774
▁책임을	-10.8776
▁가시	-10.8789
스러워	-10.8791
▁군인	-10.8791
▁비싸고	-10.8792
▁들어왔	-10.8792
되거나	-10.8792
▁장점은	-10.8793
▁발전이	-10.8794
위를	-10.88
▁와야	-10.8803
▁생각하시나요	-10.8806
▁금리	-10.8809
▁그분들	-10.8811
▁오토바이	-10.8813
▁음료	-10.8815
▁한다든가	-10.8819
▁걔네가	-10.882
▁결국엔	-10.8824
▁affiliation	-10.8824
▁떨어질	-10.8828
▁칼국수	-10.8829
▁잠시	-10.8836
▁의해서	-10.8837
로만	-10.8841
▁예의	-10.8842
▁알아야	-10.8843
▁갔어요	-10.8846
▁다니면	-10.8846
▁우리끼리	-10.885
▁통장	-10.8852
했었	-10.886
▁움직이	-10.8861
▁노력하고	-10.8867
▁만나게	-10.8869
▁맛있었던	-10.887
▁데에	-10.8872
▁뉴진스	-10.8877
▁최소	-10.8882
익	-10.8884
▁끌어	-10.8885
▁어렵다	-10.889
발이	-10.8896
▁종류를	-10.8898
▁둔	-10.89
▁이러다	-10.8901
▁운동할	-10.8907
▁나라에	-10.8909
▁0	-10.891
▁그러시	-10.8913
▁매체	-10.8914
▁케어	-10.8914
▁주장	-10.8915
▁다르다	-10.8918
▁아이티	-10.8922
▁반품	-10.8928
▁짬뽕	-10.8931
▁교회	-10.8934
▁든다	-10.8937
▁18	-10.894
선이	-10.894
▁마인드	-10.8941
▁건너	-10.8943
▁전통	-10.8945
▁엠비티아이를	-10.8946
▁아니었어	-10.8946
▁근무를	-10.8948
▁했었거든요	-10.8949
▁넣으면	-10.8951
▁들여	-10.8955
▁인터넷에	-10.8961
▁썩	-10.8963
▁탄수화물	-10.8969
▁졸업을	-10.8969
▁될까요	-10.8974
▁다녔는데	-10.898
▁기존에	-10.8983
뚝	-10.8988
▁방송을	-10.8988
▁국밥	-10.8992
▁전국	-10.8995
▁사랑을	-10.8995
▁있으신	-10.9
▁아이들도	-10.9001
▁재미없	-10.901
▁괜찮았	-10.9011
▁재수	-10.9012
▁개인의	-10.9014
핑	-10.9016
▁극복	-10.9017
▁나온다	-10.9017
▁갔지	-10.9017
▁반반	-10.9018
원으로	-10.9018
▁아빠한테	-10.9019
었으면	-10.9019
▁벽	-10.9021
▁자기한테	-10.9027
▁오늘도	-10.9029
미가	-10.903
▁강사	-10.9032
▁설명해	-10.9035
▁부럽	-10.9038
▁뿌리	-10.9039
▁댓글	-10.9042
▁학기	-10.9042
▁현금	-10.9043
▁세일	-10.9046
▁홍콩	-10.9046
▁너희들	-10.9047
▁사러	-10.9051
▁대단하	-10.9058
▁유행이	-10.906
▁아기가	-10.9067
▁팔았	-10.9071
▁주문을	-10.9071
드릴	-10.9075
▁세계적으로	-10.9076
▁전자책	-10.9077
아르	-10.9083
다니까	-10.9083
▁넣었	-10.9084
▁되어서	-10.9087
▁생각하면서	-10.9095
져야	-10.9095
▁데뷔	-10.9097
▁데에서	-10.9102
▁알리	-10.9103
▁짤	-10.9103
▁사회적으로	-10.9106
▁부분들을	-10.9107
▁이용하	-10.9108
▁가성비	-10.9115
▁다르잖아	-10.9122
▁길에	-10.9122
▁처음엔	-10.9123
▁결과가	-10.9125
버리니까	-10.9125
▁거기까지	-10.9126
▁좋아지	-10.9128
▁온라인에서	-10.913
▁시계	-10.9135
형이	-10.9138
▁시간대	-10.9139
▁죽고	-10.914
층에	-10.9141
▁가슴	-10.9141
떴	-10.9143
증이	-10.9144
▁저희도	-10.9146
▁널	-10.9148
끈	-10.915
미터	-10.9153
▁선생님께서	-10.9154
▁애완동물	-10.9155
▁그렇더라고	-10.9155
▁효과를	-10.9156
▁물려	-10.9159
끌	-10.9161
▁마블	-10.9162
▁피티	-10.9166
▁좋겠다고	-10.9166
함을	-10.9169
▁워낙에	-10.9169
▁신기하다	-10.9175
▁부산에서	-10.9175
▁키트	-10.9175
▁드라마나	-10.9175
▁고정	-10.918
▁조심해야	-10.918
▁안타깝	-10.9182
▁나오면은	-10.9184
▁나머지는	-10.9184
▁충격	-10.9187
▁바다를	-10.9194
▁가가지고	-10.9197
칙	-10.9198
▁유리	-10.9198
▁돌고	-10.9199
▁현장	-10.9199
▁귀엽고	-10.92
▁침해	-10.9201
▁봄에	-10.9202
하기는	-10.9203
▁하려	-10.9205
▁면접을	-10.9209
▁들리	-10.921
개씩	-10.9211
▁난리	-10.9217
▁시어머니	-10.9217
▁예금	-10.9221
부가	-10.9222
▁떠오르는	-10.9224
▁물품	-10.9227
▁주방	-10.9228
▁공부할	-10.9239
▁아직까지도	-10.924
▁하니깐	-10.9241
제를	-10.9243
▁일반적인	-10.9246
▁보잖아	-10.9249
▁공감이	-10.9252
▁생활하는	-10.9253
▁편이라	-10.9256
▁타지	-10.9259
하자고	-10.9259
▁남자친구	-10.9262
▁좋아하진	-10.9264
▁비대면이	-10.9264
▁차례	-10.9264
▁시선	-10.9264
▁깊었던	-10.9267
▁중독	-10.9269
▁특별하게	-10.9271
▁좋아지고	-10.9273
톡	-10.9275
▁가긴	-10.9283
▁진행을	-10.9286
▁물가가	-10.929
▁나쁘진	-10.9292
▁이슈가	-10.9294
▁요소	-10.9295
▁의무	-10.9296
▁올라오는	-10.9297
▁말하고	-10.93
▁맛있다	-10.9303
▁기다리는	-10.9303
다니	-10.9306
▁익	-10.9308
▁사건이	-10.9311
▁마치	-10.9314
▁아니어도	-10.9315
▁주인이	-10.9317
들만	-10.9322
픽	-10.9323
▁만나기	-10.9328
▁보상	-10.9329
▁물어보는	-10.9329
▁되기도	-10.9333
▁도전해	-10.9335
▁시키면	-10.9337
▁번호	-10.934
지면서	-10.934
▁없으면은	-10.9345
▁볼링	-10.9348
▁좋겠습니다	-10.9349
▁현지	-10.9351
▁느꼈어	-10.9351
▁산다고	-10.9353
▁한정	-10.9353
▁화장을	-10.9357
▁헬스를	-10.9359
하시나요	-10.9364
▁걸릴	-10.9365
▁이야기가	-10.9366
밑	-10.9368
치가	-10.9369
▁센	-10.937
▁워치	-10.9372
▁아파트를	-10.9375
▁찾아가	-10.9377
▁농사	-10.9379
▁결혼식이	-10.9379
▁아이템	-10.9381
▁인간의	-10.9381
▁살까	-10.9382
▁없어지는	-10.939
▁낫다고	-10.9392
▁생각하거든요	-10.9393
였잖아	-10.9395
▁올리고	-10.9395
▁습관	-10.9395
▁연어	-10.9396
▁모르겠	-10.9401
▁보네	-10.9403
▁실습	-10.9405
상이	-10.9412
뿐만이	-10.9413
▁된다라고	-10.9413
▁시각	-10.9415
▁거였는데	-10.9415
▁집값	-10.9418
▁그랬다	-10.9419
▁걸까	-10.9421
▁앵무새	-10.9423
▁용품	-10.9426
▁듣게	-10.9428
번을	-10.943
▁급여	-10.9433
접	-10.9435
▁학생이	-10.9435
▁소통	-10.9438
댄	-10.9439
▁머리를	-10.944
▁직접적으로	-10.9447
▁바뀌고	-10.9448
▁휴양지	-10.9449
하느냐	-10.9451
▁스케줄	-10.9452
▁난민	-10.9452
▁레시피	-10.9453
▁설탕	-10.9461
▁죽었	-10.9463
▁중심	-10.9468
등급	-10.9469
▁돼지	-10.947
겠어요	-10.9472
▁관한	-10.9484
▁배우들	-10.9484
▁블랙	-10.9484
▁있었지만	-10.9484
▁동영상	-10.9488
▁요금	-10.9488
▁일주일	-10.9492
▁붙여	-10.9497
▁해외에	-10.9499
▁코미디	-10.95
▁반면에	-10.9501
▁오랜	-10.9502
▁키워야	-10.9503
푸	-10.9504
만큼은	-10.9505
▁막히	-10.9506
▁우리나라의	-10.9506
▁오빠랑	-10.9515
▁원룸	-10.9516
▁보여서	-10.9516
했네	-10.9517
▁티브이로	-10.9518
▁안타까운	-10.952
▁들어오고	-10.9522
▁빼고는	-10.9525
▁있기도	-10.9527
프로가	-10.9529
거리는	-10.9529
▁기준으로	-10.953
▁줄여	-10.9535
▁시골에	-10.9537
▁비용을	-10.954
▁얘기했	-10.9541
▁저쪽	-10.9543
탐	-10.9544
▁찐	-10.9547
▁코드	-10.9548
▁욕심이	-10.955
그램	-10.9551
▁아깝	-10.9552
▁생각하니	-10.9554
스럽	-10.9555
▁애교	-10.9555
▁돌아가는	-10.9557
▁뜨는	-10.9562
▁나아	-10.9566
▁청년	-10.9569
▁거기서도	-10.9572
▁회식	-10.9572
틴	-10.9573
납	-10.9573
▁상관없이	-10.9576
굽	-10.958
▁번에	-10.9587
주지	-10.9587
▁배우자	-10.9589
▁캐나다	-10.9589
▁지식	-10.959
▁손에	-10.9591
▁팁	-10.9593
▁구체적으로	-10.9593
▁들어가야	-10.9595
▁스물	-10.9597
▁여자친구	-10.96
▁듣는데	-10.9603
▁멍	-10.9607
▁취소	-10.9609
▁다행이	-10.9609
▁직구	-10.961
▁편이긴	-10.9613
▁좋겠지만	-10.9613
▁신부	-10.9617
▁바로바로	-10.9618
했기	-10.9621
▁정류장	-10.9622
▁본다고	-10.9623
▁나눠서	-10.9623
▁만들기	-10.9624
▁부족하	-10.9625
▁암튼	-10.9627
금이	-10.9628
폰	-10.9637
▁먹기도	-10.9638
▁방법도	-10.9639
▁만두	-10.9639
▁이유로	-10.9642
▁상처	-10.9646
▁사회에	-10.9647
히는	-10.9647
▁선물로	-10.965
뒀	-10.965
▁렌트	-10.9653
▁따지면	-10.9657
▁가입	-10.9657
▁재미있게	-10.9659
▁하셔	-10.9659
▁많아지고	-10.9663
▁마냥	-10.9665
▁중요하지만	-10.9665
▁안정적인	-10.9667
▁결혼해서	-10.9668
▁휘	-10.9669
▁무엇보다	-10.967
▁맞으면	-10.9672
▁제도가	-10.9672
했다가	-10.9684
▁지인들	-10.9686
▁아니어서	-10.9686
▁피시방	-10.9689
▁달고	-10.9691
▁당근마켓	-10.9692
▁덕분에	-10.9692
함으로써	-10.97
▁금요일	-10.97
시키고	-10.9703
▁이러는데	-10.9703
▁서른	-10.9703
▁남을	-10.9704
겠는데	-10.9705
▁말라	-10.9708
▁외국에서	-10.9709
▁여태까지	-10.9711
▁회복	-10.9712
▁애도	-10.9713
▁맡	-10.9714
▁쉴	-10.9714
▁초코	-10.9716
▁많지만	-10.9717
▁아저씨가	-10.9717
▁미국에서	-10.9718
▁투어	-10.9718
▁기록	-10.9724
▁춘천	-10.9725
▁연예인들이	-10.9726
▁부모님한테	-10.9729
▁부탁	-10.9729
▁재테크를	-10.9732
궁	-10.9733
▁종이책	-10.9738
▁리뷰	-10.974
사람	-10.9741
▁단어	-10.9741
펜	-10.9741
▁소파	-10.9743
▁매달	-10.9745
▁전라도	-10.9745
▁커버	-10.9746
▁제목	-10.9749
▁두부	-10.975
▁제공	-10.9752
▁좋아하	-10.9754
버스	-10.9757
이트	-10.9758
▁이상형	-10.976
▁14	-10.9763
▁일본어	-10.9767
▁핸드폰으로	-10.977
▁자식이	-10.9772
▁소재	-10.9781
▁아기들	-10.9784
제가	-10.9784
▁상대방이	-10.9785
▁남자들	-10.9786
▁맵	-10.9786
▁멀미	-10.9787
▁갔었잖아	-10.979
▁달리기	-10.9791
▁여덟	-10.9791
▁끝이	-10.9793
▁갔었	-10.9795
▁갖는	-10.9799
이래	-10.9803
▁과목이	-10.981
▁하시는데	-10.9813
▁언젠가는	-10.9813
마리를	-10.9815
▁귀찮아	-10.9817
이잖아요	-10.982
▁괜찮더라고	-10.982
▁귀여워	-10.9821
▁어머	-10.9821
▁노선	-10.9822
▁살지	-10.9824
죄	-10.9824
▁일본은	-10.9831
▁다운	-10.9833
헌	-10.9837
▁교복	-10.9837
▁당연하지	-10.9842
▁한꺼번에	-10.9845
▁바뀔	-10.9845
▁스키장	-10.9845
▁딱딱	-10.9847
▁일자리가	-10.9848
▁선물은	-10.9849
▁들어보니까	-10.985
▁자금	-10.985
▁녹음	-10.985
▁오이	-10.9852
▁베이스	-10.9856
▁생각만	-10.9857
졌어	-10.9857
자로	-10.986
▁스테이	-10.9861
병원	-10.9865
같은	-10.9865
▁거면은	-10.9865
▁유튜브나	-10.9868
▁연장	-10.9869
▁계획은	-10.9869
▁그다지	-10.9869
라인	-10.9872
▁대체할	-10.9875
▁당연한	-10.9877
▁서빙	-10.9877
▁끝난	-10.9881
칭	-10.9881
▁활성화	-10.9882
하셨던	-10.9886
▁교환	-10.9889
▁깊이	-10.9891
▁과정을	-10.9893
▁그만두고	-10.9897
▁차로	-10.9899
▁지키	-10.9899
▁유산균	-10.99
▁행위	-10.99
▁무게	-10.9901
▁대화가	-10.9903
▁한계가	-10.9904
▁트렌드	-10.9904
▁태권도	-10.9904
▁도시락	-10.9906
▁불법	-10.9906
▁튀김	-10.9907
▁동시에	-10.9909
▁유투브	-10.9912
▁더운	-10.9914
▁다녀왔	-10.9914
▁물가	-10.9914
▁가치관	-10.9918
▁애들하고	-10.992
색이	-10.9924
▁채소	-10.9925
▁방식이	-10.9926
▁방법은	-10.9931
▁충전	-10.9933
▁이런저런	-10.9933
오는	-10.9934
줘서	-10.9935
▁인도	-10.9938
▁단순	-10.9939
▁안내	-10.9939
주셔서	-10.994
▁타서	-10.9943
▁어플	-10.9945
샘	-10.9946
▁가더라고	-10.9952
▁바르	-10.9952
▁적어도	-10.9959
▁위에서	-10.9961
▁박스	-10.9967
▁다니는데	-10.9967
▁깔아	-10.997
▁러시아	-10.9971
▁짠	-10.9972
▁열정	-10.9977
▁언젠가	-10.9979
▁마케팅	-10.998
▁그중에서도	-10.998
권을	-10.9982
▁작품을	-10.9982
▁나이도	-10.9989
▁늘어나	-10.9993
▁과거에	-10.9993
▁업무를	-10.9997
▁봤었	-10.9997
▁일자리를	-10.9997
▁시작해	-10.9998
▁아들은	-11
▁도와주	-11.0001
▁나누	-11.0002
하려는	-11.0004
▁유명하	-11.0006
▁야외	-11.0006
▁궁금해요	-11.0008
▁결혼하는	-11.0009
▁간다는	-11.0013
▁치우	-11.0014
▁길어	-11.0015
▁코트	-11.0015
▁약간의	-11.0015
▁속초	-11.0017
▁의도	-11.0017
▁육아	-11.0018
▁마늘	-11.002
딱	-11.0022
▁기자	-11.0022
▁기억도	-11.0023
▁몰입	-11.0023
▁보시는	-11.0026
긋	-11.0031
▁시도	-11.0031
▁밀가루	-11.0032
▁가지는	-11.0034
▁일반적으로	-11.0036
▁솔로	-11.0036
력을	-11.0037
▁그래야지	-11.0037
▁가지로	-11.0037
▁살인	-11.0039
잇	-11.0039
▁장르가	-11.0041
▁디즈니	-11.0044
전을	-11.0044
▁왔어요	-11.0045
▁자기들이	-11.0046
샤	-11.0052
으라고	-11.0058
▁정신적으로	-11.0062
▁알잖아	-11.0064
였다	-11.0065
▁최저	-11.0065
하잖아요	-11.0066
▁동물들	-11.0069
▁보일	-11.0072
▁중요하고	-11.0073
▁좋아졌	-11.0074
▁대처	-11.0076
▁입으면	-11.0077
▁주잖아	-11.0079
▁이후로는	-11.0079
위가	-11.008
▁임대	-11.0082
▁사람만	-11.0083
하시니까	-11.0085
▁토마토	-11.0086
▁봐라	-11.0087
▁할게	-11.0087
▁맘	-11.0087
붙	-11.0089
▁신문	-11.0089
▁유행하는	-11.0092
▁살게	-11.0094
▁곱창	-11.0099
된다고	-11.01
▁부러워	-11.01
보셨어요	-11.01
▁있어야지	-11.0101
▁마시는	-11.0103
▁계시고	-11.0103
▁있으시	-11.0106
▁마침	-11.0107
정을	-11.011
뚱	-11.0112
▁키오스크	-11.0112
▁남았던	-11.0116
▁조카	-11.012
▁외국에	-11.0124
▁어쩌다	-11.0124
▁축하	-11.0125
▁피곤하	-11.0126
▁없어졌	-11.0129
시간씩	-11.013
게끔	-11.0132
▁너를	-11.0132
▁그랬구나	-11.0134
▁공사	-11.0135
▁중요	-11.0135
▁장단점이	-11.0136
▁찍은	-11.0141
▁면에서는	-11.0143
였으면	-11.0144
▁만났던	-11.0144
▁주사	-11.0148
▁존중	-11.0151
▁약속을	-11.0151
▁집안일	-11.0152
▁요양	-11.0153
대는	-11.0155
▁국제	-11.0158
▁보장	-11.016
▁피디	-11.0167
▁로봇이	-11.0168
▁벌레	-11.0169
▁긴장	-11.0169
곱	-11.0172
▁art	-11.0177
▁애견	-11.0178
률	-11.0183
▁아기를	-11.0185
▁모래	-11.0186
▁오피스텔	-11.019
▁드시	-11.0191
▁강아지나	-11.0198
▁분석	-11.0198
▁샤워	-11.0199
▁진로를	-11.0202
괴	-11.0203
참	-11.0204
▁돌아다니는	-11.0204
꾸	-11.0206
▁먹다가	-11.0207
▁가전제품	-11.0207
▁방향	-11.0208
뉴	-11.0209
▁홈쇼핑	-11.021
▁놀랐어	-11.0217
▁이용하고	-11.0219
▁중반	-11.022
▁때에는	-11.022
▁않았어요	-11.0221
▁서울로	-11.0225
▁먼지	-11.0227
▁사회적	-11.0228
▁건축	-11.0228
▁상태가	-11.0235
▁그때그때	-11.0237
▁부자	-11.0238
▁찍어서	-11.0238
▁대리	-11.0242
▁모르지	-11.0244
▁자리에서	-11.0245
▁춤을	-11.0246
▁만화책	-11.0247
▁오르고	-11.0249
▁힘드	-11.0252
▁기술을	-11.0253
▁면허	-11.0253
▁애매한	-11.0259
▁연인	-11.0261
겠더라고	-11.0265
▁에피소드	-11.0265
▁이마트	-11.0266
컵	-11.0267
▁다른데	-11.0269
▁변화가	-11.0269
집에	-11.0271
▁자극	-11.0272
▁갔더니	-11.0274
▁소심	-11.0275
▁필리핀	-11.0277
▁구성	-11.0278
▁하면서도	-11.028
▁도쿄	-11.0281
▁알바가	-11.0282
전에	-11.0285
▁끝내	-11.0288
▁갔었던	-11.0288
▁있으니깐	-11.0289
▁시설을	-11.0289
▁편이거든	-11.0294
▁활용을	-11.0295
▁번째는	-11.0296
▁때문이	-11.0296
몰	-11.0297
▁가운데	-11.0299
▁갖	-11.0299
▁알려주	-11.03
▁크다	-11.03
▁잠이	-11.0301
▁싶진	-11.0301
▁성격도	-11.0308
▁것으로	-11.031
▁교류	-11.0311
▁한쪽	-11.0311
▁오빠도	-11.0312
▁노래들	-11.0318
▁노력하는	-11.0319
겠다는	-11.032
▁자유여행	-11.0325
▁반려견	-11.0326
볶음	-11.0328
▁대부분의	-11.0331
정이	-11.0333
▁나온다고	-11.0339
▁백신	-11.034
▁시장이	-11.0344
▁저에게	-11.0344
▁태어나	-11.0347
▁울산	-11.0359
▁무서워서	-11.0363
▁서핑	-11.0367
▁국가에서	-11.0371
▁이별	-11.0375
▁꿀	-11.0379
▁여기가	-11.0379
▁했잖아요	-11.038
▁생겼어	-11.0382
▁오사카	-11.0382
나무	-11.0383
학년이	-11.0384
둘	-11.0385
다시피	-11.0387
▁나갔	-11.0388
버거	-11.0388
▁혹	-11.0389
▁행복하게	-11.0389
▁비해	-11.0391
▁어쩌면	-11.0391
▁흰색	-11.0391
드리는	-11.0394
▁평균	-11.0395
▁진상	-11.0396
▁음료수	-11.0398
▁판단을	-11.0401
▁보람	-11.0402
▁재산	-11.0405
▁음식에	-11.0407
▁사진도	-11.0407
▁하와이	-11.0407
▁없어지고	-11.0409
▁이직	-11.0411
▁설정	-11.0412
▁브이알	-11.0413
▁내려서	-11.0414
▁분은	-11.0418
로써	-11.0421
▁지역에서	-11.0424
세트	-11.0427
▁차지	-11.0428
차를	-11.0428
▁죽음	-11.0429
▁찬성하는	-11.0434
방에서	-11.0435
▁다니다	-11.0437
▁방탄소년단	-11.044
▁판타지	-11.044
▁부대	-11.044
▁이자	-11.044
▁영화에	-11.0442
▁가정을	-11.0443
릭	-11.0444
▁나더라고	-11.0445
▁이불	-11.0449
▁고모	-11.0449
▁부를	-11.0449
▁향수	-11.045
▁오케이	-11.0452
▁통해	-11.0453
▁혈압	-11.0453
▁됐다고	-11.0459
어져	-11.0462
▁인스타그램	-11.0462
▁듣지	-11.0463
▁흐름	-11.0464
▁새롭게	-11.0466
▁햇빛	-11.0466
▁쓰는데	-11.0468
▁종류의	-11.047
▁다음에는	-11.047
▁카페에서	-11.0471
▁숲	-11.0473
▁테스트	-11.0475
컬	-11.0476
▁가기도	-11.0484
▁싸우고	-11.0485
▁적극적으로	-11.0487
층이	-11.0488
▁관해서	-11.0489
▁들어갔는데	-11.0489
▁보완	-11.0491
▁잡을	-11.0496
▁빨리빨리	-11.0497
▁수준이	-11.0498
▁뭐든	-11.05
▁숍	-11.0501
▁고생을	-11.0506
▁장르를	-11.0506
▁쿠키	-11.0507
젠	-11.0509
▁지갑	-11.0509
▁인원	-11.0514
▁보기에	-11.0517
▁상가	-11.0521
명의	-11.0522
▁많아졌	-11.0522
▁걔랑	-11.0526
닭	-11.0528
하나	-11.0532
▁반에	-11.0537
▁희생	-11.0539
▁보이더라고	-11.0541
▁여자애들	-11.0541
▁항공	-11.0543
역이	-11.0544
▁하우스	-11.0546
▁말했다시피	-11.0547
▁멜로디	-11.0547
▁타면은	-11.0551
허	-11.0552
▁빵집	-11.0554
▁힘들긴	-11.0554
▁칭찬	-11.0556
진다고	-11.0559
▁평소	-11.0559
▁등산을	-11.0559
드리고	-11.0565
권이	-11.0566
▁확인을	-11.0566
▁발표	-11.0568
▁다니니까	-11.0569
▁통화	-11.0571
▁했는지	-11.0574
▁목적이	-11.0576
▁같으니까	-11.0577
빅	-11.0578
▁외부	-11.0582
▁바라는	-11.0582
▁죽은	-11.0583
▁껴	-11.0583
▁삐	-11.0588
▁배를	-11.0588
▁오게	-11.059
▁카페를	-11.0591
▁볶음밥	-11.0596
▁다만	-11.0597
▁이직을	-11.06
▁나라의	-11.06
▁짜장면	-11.0601
▁당일	-11.0603
▁생각하기에는	-11.0603
았어	-11.0614
▁내면	-11.0615
▁재미를	-11.0616
▁좋겠다라는	-11.0617
▁남자들은	-11.0618
▁마약	-11.0619
▁유재석	-11.0623
▁돌아가신	-11.0624
▁자기들	-11.0624
▁중앙	-11.0625
▁신발을	-11.0626
류를	-11.0628
▁손가락	-11.0628
▁아니냐	-11.063
명씩	-11.0631
▁같다라는	-11.0639
▁것과	-11.064
시킨	-11.0642
▁걸려서	-11.0646
▁묵	-11.0646
▁사랑하는	-11.0647
▁경험도	-11.0653
▁길거리	-11.0656
▁야간	-11.0656
▁입맛에	-11.0656
지더라고	-11.0657
▁많거든요	-11.066
▁있었나	-11.0661
▁자리에	-11.0665
▁떨어져서	-11.0669
▁것인가	-11.0676
▁추천할	-11.0679
▁장례식장	-11.068
▁그랬거든	-11.0682
▁이미지가	-11.0682
▁일본이	-11.0687
하기에는	-11.0691
▁가치	-11.0691
▁연금	-11.0692
▁넘기	-11.0692
▁한다면은	-11.0693
등을	-11.0695
하더라	-11.0697
치기	-11.0698
▁걔를	-11.0698
쉬	-11.0701
▁그랬었	-11.0703
혼	-11.0705
▁두는	-11.0706
차가	-11.0708
▁애매하	-11.071
하자면	-11.0717
▁여자들	-11.072
▁후기	-11.0721
▁느낌은	-11.0722
▁싶기는	-11.0723
▁허리가	-11.0723
▁하시더라고	-11.0725
▁해봤는데	-11.0728
캔	-11.0728
▁외식	-11.0728
▁경력	-11.0731
쪽으로	-11.0733
었는지	-11.0734
▁있었다	-11.0734
▁지점	-11.0735
▁결혼식장	-11.0735
▁드시는	-11.074
▁초콜릿	-11.0741
▁로망	-11.0742
텐	-11.0743
▁개인적으로는	-11.0743
▁그려	-11.0744
▁분위기를	-11.0749
자들	-11.0751
까요	-11.0754
▁되거든요	-11.0755
▁일곱	-11.0755
밀리	-11.0758
▁경비	-11.0758
▁싸웠	-11.0758
▁고쳐	-11.0759
▁엉	-11.0763
▁킥보드	-11.0764
▁다녀오	-11.0765
케이	-11.0769
▁비싸서	-11.0773
▁그거로	-11.0774
하겠습니다	-11.0775
▁않을까요	-11.0775
▁부모님들	-11.0776
▁군대에서	-11.0779
▁장애	-11.078
▁등록	-11.0781
▁좋거든	-11.0783
전이	-11.0784
▁줄을	-11.0784
▁찍었	-11.0784
▁쌤이	-11.0785
▁말까	-11.079
▁경기가	-11.0791
▁없고요	-11.0794
▁프로젝트	-11.0796
▁재미있	-11.0803
▁왔지	-11.0803
널	-11.0804
▁집중을	-11.0804
▁비싸게	-11.0804
▁보기는	-11.0805
▁확률이	-11.0805
▁비슷해	-11.0809
비도	-11.0816
▁정도에	-11.0817
▁한대	-11.0819
▁배워야	-11.0822
▁아이는	-11.0823
했구나	-11.0824
▁라이브	-11.0825
▁냉동	-11.0827
▁낳았	-11.0829
▁생각하게	-11.0833
▁습관이	-11.084
▁하세요	-11.084
▁쏘	-11.0843
▁마셔	-11.0845
▁갔거든	-11.0846
▁끝나는	-11.0847
▁강아지랑	-11.0851
▁났는데	-11.0851
▁들어오면	-11.0854
▁차트	-11.0854
▁대기	-11.0855
적으로도	-11.0855
▁언니한테	-11.0858
▁금리가	-11.086
▁달라서	-11.0864
▁제주도에서	-11.0865
▁월요일	-11.0866
▁가려면	-11.087
▁먹는다고	-11.0873
▁야자	-11.0876
공학	-11.0876
▁피해가	-11.0879
▁입에	-11.0881
▁너희가	-11.0881
▁이쪽으로	-11.0883
▁바꿔야	-11.0884
표를	-11.0885
▁하나로	-11.0886
▁심하	-11.0886
▁건설	-11.0888
▁아이디어	-11.0893
▁통제	-11.0894
▁짓는	-11.0895
측	-11.0899
맞	-11.0899
▁갔었어	-11.0899
▁없었어요	-11.0899
▁밀어	-11.0901
▁단풍	-11.0904
▁주시면	-11.0904
▁추억을	-11.0905
▁이탈리아	-11.0907
▁부모님이랑	-11.0908
▁남겨	-11.0909
▁자신을	-11.0912
▁유도	-11.0914
▁기회를	-11.0916
▁남자애들	-11.0918
래요	-11.0921
▁필요하고	-11.0921
▁맘에	-11.0926
▁만남	-11.0928
▁애들끼리	-11.0931
▁결혼식에	-11.0933
했으니까	-11.0936
▁은근히	-11.0936
롭	-11.0937
▁작게	-11.0937
▁가수들이	-11.094
▁중요시	-11.0945
▁함부로	-11.0954
▁장난감	-11.0956
▁싸우는	-11.0956
▁시골에서	-11.0957
▁먹었다	-11.0958
▁일본을	-11.096
▁키웠던	-11.0962
▁하겠	-11.0962
▁은근	-11.0964
스럽게	-11.0969
▁선물해	-11.0971
럭	-11.0972
▁버스도	-11.0973
▁욕을	-11.0974
▁없어진	-11.0979
▁사례	-11.098
▁대답	-11.0984
으니	-11.0986
▁고깃집	-11.0987
▁필기	-11.0993
시나요	-11.0995
▁무릎이	-11.0996
▁가라	-11.0996
▁주제가	-11.1
▁동안에	-11.1001
핀	-11.1001
▁멋있는	-11.1003
▁소위	-11.1006
▁문제라고	-11.1007
벽	-11.1016
▁소식	-11.1018
▁좋겠	-11.1019
둔	-11.102
▁궁금해서	-11.1022
▁받았어	-11.1024
▁장사	-11.1028
▁좌석	-11.1035
▁누구랑	-11.1037
▁한잔	-11.1037
▁납니다	-11.1038
찔	-11.1043
▁그분들이	-11.1044
번씩은	-11.1045
▁다가가	-11.1047
▁용기	-11.1048
보신	-11.1048
▁여자들이	-11.1049
▁얘기했듯이	-11.1049
▁벌어서	-11.1051
▁사람에게	-11.1052
▁시켜야	-11.1053
▁타투	-11.1057
▁작아	-11.106
▁처벌	-11.1063
▁일주일에	-11.1065
▁보고서	-11.1066
▁행복해	-11.1066
▁어떡하지	-11.1074
▁재미도	-11.108
▁어려움이	-11.108
▁매년	-11.1087
▁가격은	-11.1087
▁집에서는	-11.1087
▁걔네들은	-11.1088
▁접할	-11.1089
▁회계	-11.109
▁아줌마	-11.1091
춰	-11.1092
▁이과	-11.1094
▁찾아보는	-11.1095
▁좋기는	-11.1097
▁지나서	-11.1098
▁버릴	-11.1099
하곤	-11.1101
▁가전	-11.1102
▁점수	-11.1105
▁것까지	-11.1107
▁없어도	-11.1108
▁외롭	-11.1112
▁무엇을	-11.1113
▁넘었	-11.1118
▁빵을	-11.1119
제로	-11.112
▁있겠	-11.1121
▁겁이	-11.1123
▁도저히	-11.1124
▁따져	-11.1125
▁가을에	-11.1126
▁있겠구나	-11.1126
▁적금을	-11.1126
▁팝	-11.1128
▁반지	-11.1129
▁상관	-11.1131
하시면서	-11.1131
▁가서도	-11.1132
▁섭취	-11.1136
▁보자고	-11.1138
▁사회생활	-11.114
▁자산	-11.1141
▁혹시나	-11.1142
▁임신	-11.1144
▁들어야	-11.1144
▁간장	-11.1145
▁교수	-11.1146
▁키우지	-11.1149
▁환경을	-11.1151
것	-11.1151
▁배워서	-11.1153
▁급하게	-11.1153
▁벗어나	-11.1154
좌	-11.1155
▁재밌다고	-11.1159
▁시작할	-11.116
▁해줄	-11.1164
과의	-11.1164
▁로망이	-11.1165
▁법이	-11.1166
▁들어가기	-11.1169
▁시기에	-11.1172
▁17	-11.1173
김치	-11.1177
▁딸기	-11.1177
짱	-11.1177
▁돌아다니면서	-11.1179
▁맞추	-11.1184
▁짜고	-11.1188
▁하겠어	-11.1189
▁식사를	-11.1189
▁동네에서	-11.1189
▁얘기하	-11.1196
▁팬이	-11.1197
▁음식들	-11.1197
▁와인	-11.1199
▁거라는	-11.1199
덴	-11.1208
▁일들을	-11.1209
▁변호사	-11.1209
▁현실적인	-11.121
이거든요	-11.1211
▁강요	-11.1211
▁빨간	-11.1212
이었거든	-11.1213
▁수면	-11.1214
▁신체	-11.1216
▁완성	-11.1217
▁오를	-11.1219
빠	-11.1219
▁나이대	-11.1221
▁방식으로	-11.1225
▁중요한데	-11.1227
▁알레르기	-11.1231
▁나타나	-11.1232
▁악용	-11.1232
려나	-11.1236
▁들어본	-11.1236
내고	-11.1239
▁있다면은	-11.124
겹	-11.1242
집에서	-11.1244
뜬	-11.1248
▁결국에	-11.1249
▁아마도	-11.1249
▁향이	-11.125
▁신청을	-11.1253
시니까	-11.1253
▁겪	-11.1254
되어야	-11.1256
▁극장	-11.1256
하네	-11.1259
▁학교생활	-11.126
▁자식들	-11.1262
▁편할	-11.1265
▁미니	-11.1265
▁입었	-11.1267
▁읽었	-11.1268
두고	-11.1271
▁대부분이	-11.1272
▁배차	-11.1274
▁준비가	-11.1276
▁나하고	-11.1277
▁재밌다	-11.128
▁학교도	-11.1281
▁불만	-11.1282
▁갔고	-11.1284
▁손님이	-11.1284
▁돌아오	-11.1284
▁거기서는	-11.1284
▁보인다	-11.1289
▁서면	-11.1299
▁같거든요	-11.1301
▁맞어	-11.1305
룩	-11.1306
했었어	-11.1306
▁인디	-11.1309
빗	-11.1311
▁식기세척기	-11.1311
땡	-11.1315
▁꿈은	-11.1316
리스	-11.1318
▁저게	-11.1318
▁치면은	-11.1318
▁드럼	-11.1325
▁아웃렛	-11.133
▁딸은	-11.1334
▁목적으로	-11.1337
▁가끔은	-11.1339
▁되네	-11.134
▁물어보면	-11.134
▁세대가	-11.1343
▁사이즈가	-11.1347
랜드	-11.1349
▁데려다	-11.1349
▁줄이고	-11.1351
▁동생은	-11.1356
▁질이	-11.1357
돌이	-11.1358
▁인해	-11.1361
님은	-11.1362
▁남자들이	-11.1362
▁이전	-11.1367
▁가사가	-11.1368
▁해결할	-11.1374
▁전환	-11.1374
▁콜라	-11.1374
▁카레	-11.1374
▁소개해	-11.1379
▁사회적인	-11.1379
▁미래를	-11.138
▁선호하	-11.1386
▁혜택을	-11.1387
보셨나요	-11.1388
▁반드시	-11.1388
▁먹방	-11.1389
▁관리하는	-11.1392
▁펴	-11.1393
셨던	-11.1394
▁남이	-11.1395
했지만	-11.1399
▁나간	-11.1399
▁온다고	-11.14
▁헤어지	-11.14
▁깔끔하게	-11.1402
▁착한	-11.1404
▁만져	-11.1406
▁지방에	-11.1406
▁괜찮았던	-11.1407
▁정해서	-11.141
럽	-11.1412
보도록	-11.1413
▁식구들	-11.1414
▁하시더라고요	-11.1415
▁자료	-11.1418
▁해운대	-11.1418
린다	-11.1419
▁도전을	-11.1423
방에	-11.1423
▁터지	-11.1424
공원	-11.1424
▁먹긴	-11.1425
▁마음의	-11.1426
▁프리	-11.1426
히고	-11.1434
▁방법으로	-11.1435
우니까	-11.1438
▁차원에서	-11.1441
▁동생이랑	-11.1441
지기	-11.1442
▁포함	-11.1448
▁한번씩	-11.1448
▁기대를	-11.145
▁다니다가	-11.1451
▁감수	-11.1454
50	-11.146
▁나요	-11.1461
▁수익을	-11.1462
렌	-11.1464
년도에	-11.1465
▁걱정은	-11.1465
▁살던	-11.1466
▁줘야지	-11.147
졌다	-11.1473
이죠	-11.1474
▁넓어	-11.1486
▁임영웅	-11.1489
▁인정을	-11.1491
▁감시	-11.1492
▁가을이	-11.1493
▁어머님이	-11.1495
하거든요	-11.1496
▁메타버스	-11.1496
려는	-11.1497
▁밖으로	-11.1498
칼로리	-11.1502
▁소득	-11.1504
▁어때요	-11.1509
▁정도까지	-11.1509
▁오염	-11.1514
▁나라를	-11.1518
▁접근	-11.1528
▁어제도	-11.1529
▁정돈	-11.1529
맹	-11.1531
턱	-11.1531
▁사무실	-11.1533
▁고민하고	-11.1534
▁자영업	-11.1536
실이	-11.1539
춘	-11.1539
▁골라	-11.1543
▁초기	-11.1545
▁줄이	-11.1553
▁가슴살	-11.1553
▁아내	-11.1553
▁들어올	-11.1554
▁뉴스에서	-11.1554
했죠	-11.1555
▁반이	-11.1559
▁비용도	-11.1559
▁여자애	-11.1561
▁나왔다	-11.1563
▁현재는	-11.1564
▁제주도는	-11.1565
▁좋아하시나요	-11.1566
▁신혼여행	-11.1566
왔던	-11.1568
▁시작했는데	-11.157
▁슈퍼	-11.1571
드라	-11.1575
▁때까지는	-11.1575
▁사람들끼리	-11.1578
▁당구	-11.1579
수도	-11.1583
▁싱가포르	-11.1586
▁신기해	-11.1588
▁다양하	-11.1588
되기	-11.1591
▁가족은	-11.1594
▁오리	-11.1595
▁정이	-11.1597
▁감명	-11.1599
욱	-11.1599
▁코딩	-11.1602
▁있진	-11.1604
▁배추	-11.1605
▁사시는	-11.1606
핏	-11.1607
▁라이	-11.1608
▁등등	-11.1608
▁멜론	-11.1615
▁분리	-11.1616
▁적에	-11.1622
▁체중	-11.1622
▁스릴러	-11.1626
▁흥미가	-11.1627
▁그러진	-11.1628
▁비행기를	-11.1629
▁없을까	-11.1631
드리	-11.1632
이라면	-11.1633
▁아휴	-11.1634
먹고	-11.1638
▁동작	-11.1639
▁조합	-11.1644
하세요	-11.1647
▁봅니다	-11.1649
▁살았는데	-11.165
▁타기	-11.1653
▁좋았어요	-11.1654
▁엘리베이터	-11.1655
▁상승	-11.1657
▁몸도	-11.166
▁편이지	-11.166
▁받았을	-11.1662
▁멀어지	-11.1663
▁쌀국수	-11.1666
▁편하지	-11.1668
▁인구가	-11.1671
▁할아버지가	-11.1673
▁넘는	-11.1674
▁형식	-11.1674
▁관리가	-11.1675
▁준비해	-11.1679
▁유통	-11.1679
▁계절이	-11.168
▁시절이	-11.1682
핸	-11.1685
▁어저께	-11.1686
▁꾸며	-11.1687
▁보세요	-11.1688
시부터	-11.1689
꼴	-11.1691
▁선에서	-11.1693
▁무겁	-11.1694
줌	-11.1694
▁피우	-11.1694
산에	-11.1696
해진	-11.17
▁힘들잖아	-11.1702
에프	-11.1703
▁산을	-11.1703
▁않았었	-11.1705
▁백종원	-11.1706
▁주부	-11.1706
산을	-11.1708
▁시시티브이	-11.1711
버렸어	-11.1711
▁금액을	-11.1711
▁입맛이	-11.1715
▁고양이들	-11.1715
▁원피스	-11.1716
▁주식에	-11.1717
분들한테	-11.1717
▁갓	-11.1718
▁제주	-11.1719
▁컬러	-11.1721
겠네요	-11.1721
▁규칙	-11.1722
▁이끌어	-11.1724
▁외에도	-11.1727
▁좋아진	-11.1727
하여	-11.1727
▁갈아타	-11.1733
▁직장에서	-11.1733
▁거리를	-11.1733
▁좋아지는	-11.1734
▁데려	-11.1735
▁활동이	-11.1735
▁부위	-11.1736
▁아프면	-11.1749
였거든요	-11.1753
▁스몰	-11.1753
▁어디까지	-11.1756
▁작곡	-11.1758
▁일어났	-11.1759
▁예매	-11.1765
뷰	-11.1765
▁재밌었	-11.1767
▁만들어야	-11.1771
털	-11.1778
▁하락	-11.1778
▁주거나	-11.1781
▁우연히	-11.1782
▁바쁘	-11.1782
▁연출	-11.1785
따	-11.1789
▁만나지	-11.1791
▁구해	-11.1792
▁요구	-11.1796
렉	-11.1797
▁구독	-11.1798
▁야구장	-11.1799
▁단점은	-11.1799
▁상사	-11.18
▁올라왔	-11.1803
▁작용	-11.1804
▁모르잖아	-11.1805
▁맞네	-11.1805
쪄	-11.181
섭	-11.1812
▁회원	-11.1813
▁차는	-11.1814
▁편이어서	-11.1817
▁맞는지	-11.1823
▁포항	-11.1825
▁지나가는	-11.1828
▁떠오르	-11.1828
▁불러서	-11.1829
▁허용	-11.1832
▁아플	-11.1837
▁키우다	-11.1842
▁넘어가는	-11.1842
▁술집	-11.1843
▁문제에	-11.1843
보지	-11.1843
▁알바는	-11.1845
텔	-11.1845
▁생각하시는지	-11.185
이었어요	-11.1853
▁준비할	-11.1855
하다는	-11.1855
▁무신사	-11.1858
▁지금의	-11.1861
▁생일이	-11.1862
▁같은데요	-11.1863
▁발전소를	-11.1865
▁해소	-11.1867
▁엇	-11.1871
▁뿌려	-11.1874
▁미안	-11.1882
밍	-11.1883
▁편리한	-11.1884
▁형부	-11.1887
▁모두가	-11.1892
▁사람인	-11.1894
▁허락	-11.1897
▁사용하	-11.1899
▁된단	-11.1899
▁차도	-11.1903
깃	-11.1904
▁된다라는	-11.1905
▁들어도	-11.1907
▁사랑이	-11.1908
▁독서	-11.1909
▁어디야	-11.1911
▁존엄사	-11.1912
▁외우	-11.1912
▁특징	-11.1914
▁에이아이로	-11.1916
조차도	-11.1918
▁오프라인에서	-11.192
▁서류	-11.192
▁바람에	-11.1921
▁유지를	-11.1922
용품	-11.1923
▁한때	-11.1927
▁같았어	-11.1927
▁끝날	-11.1928
▁어떤지	-11.1929
▁지하철은	-11.1931
▁병원이	-11.1931
▁있음	-11.1931
▁에스파	-11.1933
▁안경	-11.1934
▁선생님을	-11.1937
▁공을	-11.1938
▁재미있는	-11.1939
▁행정	-11.1943
▁신나는	-11.1943
▁나왔잖아	-11.1943
▁마찬가지고	-11.1945
▁소모	-11.1947
▁양파	-11.1948
▁에너지가	-11.195
▁그쪽이	-11.1951
▁주식도	-11.1951
▁내리는	-11.1952
맛	-11.1953
▁게스트	-11.1954
▁최고의	-11.1956
▁언제든지	-11.1957
▁오해	-11.196
▁어어	-11.196
▁주기적으로	-11.1961
동이	-11.1961
▁티켓	-11.1966
▁못했는데	-11.197
▁재밌지	-11.1971
▁더워	-11.1971
▁유행을	-11.1976
▁있었기	-11.1977
▁유명해	-11.1978
▁측면	-11.1978
▁편지	-11.1979
랄까	-11.1979
▁거지만	-11.198
면서도	-11.1986
▁술도	-11.1988
질을	-11.1988
벗	-11.199
▁국수	-11.199
▁멋있어	-11.199
▁와도	-11.199
▁자극적인	-11.1991
▁피로	-11.1995
▁수익	-11.1996
▁순간에	-11.1997
▁핵	-11.1999
▁상의	-11.2002
▁실천	-11.2004
▁고집	-11.2006
▁무거운	-11.2007
▁피해자	-11.2011
▁계셨	-11.2015
▁시작하	-11.2016
쪘	-11.2018
▁건조	-11.202
▁꼬리	-11.202
쾌	-11.2028
▁조용한	-11.2028
▁배상	-11.203
▁다음날	-11.2032
▁않을까라고	-11.2034
▁골목	-11.2035
▁전까지	-11.2036
▁구매하는	-11.2042
▁무한	-11.2045
▁쓰니까	-11.2049
▁대장	-11.2051
▁재건축	-11.2054
▁어딘가	-11.2054
준다	-11.2054
▁손흥민	-11.2055
▁맛없	-11.2057
▁쪼끔만	-11.2058
덥	-11.2061
▁돈만	-11.2064
▁느낌인	-11.2068
▁테이블	-11.2075
▁먹는다	-11.2075
▁지금부터	-11.2083
▁저한테는	-11.2085
혁	-11.2085
▁주위에서	-11.2087
▁먹여	-11.2087
▁예산	-11.2092
▁국내에서	-11.2096
▁여행으로	-11.2096
▁같네요	-11.2097
▁지났	-11.21
▁이외에	-11.2102
▁좋았을	-11.2105
▁누구한테	-11.2105
▁갔었거든	-11.2105
▁미국에	-11.2106
▁느끼게	-11.2107
즐	-11.2111
▁보시면	-11.2114
▁부서	-11.2117
▁않습니까	-11.2118
▁익산	-11.2122
▁동기들	-11.2123
▁중인데	-11.2128
▁참석	-11.2129
▁낭비	-11.213
▁경제가	-11.213
▁부분들	-11.2131
▁궁합	-11.2133
▁맛있었	-11.2137
▁정서	-11.2138
▁챙겨야	-11.2141
습니까	-11.2142
으려면	-11.2143
▁따른	-11.2145
▁몰랐던	-11.2147
▁교실	-11.2148
▁보시	-11.2149
▁배치	-11.2152
▁클럽	-11.2154
▁힘들더라고요	-11.2157
했었거든	-11.2159
주에	-11.2159
▁부러	-11.216
▁얘를	-11.2161
▁지능이	-11.2161
하냐	-11.2162
넷	-11.2163
▁다이소	-11.2164
▁바둑	-11.2165
▁살았던	-11.2165
▁아니거든	-11.2171
▁남성	-11.2171
▁누워서	-11.2173
▁동생들	-11.2174
▁계좌	-11.2175
▁늘려	-11.2175
▁사귀는	-11.2176
▁회사는	-11.218
▁웃고	-11.218
▁다르다고	-11.2186
▁얘네	-11.2187
▁아끼	-11.2188
▁인식을	-11.2196
▁보관	-11.2199
시설	-11.22
▁보안	-11.2201
▁생각인	-11.2202
▁평상시에	-11.2202
▁좋아했었는데	-11.2207
▁생각해야	-11.2208
▁나보고	-11.2208
▁남해	-11.2209
▁준다는	-11.2212
▁크다고	-11.2213
험	-11.2213
잘	-11.2214
▁쓰면서	-11.2216
▁큰애	-11.2216
▁저렴하	-11.2221
▁세부	-11.2223
▁아니었	-11.2225
▁크니까	-11.223
▁신경이	-11.2231
▁건물주	-11.2234
▁싸이	-11.2237
띠	-11.2244
▁환불	-11.2244
▁물놀이	-11.2247
▁취업이	-11.2249
▁비해서는	-11.2252
▁분야가	-11.2253
약을	-11.2256
했는지	-11.2257
르고	-11.2257
랐	-11.2259
▁나왔었	-11.226
▁호텔에서	-11.2262
▁고급	-11.2262
▁시원한	-11.2263
▁미안하	-11.2264
▁들었습니다	-11.2265
▁정도밖에	-11.2265
▁마사지	-11.2266
▁얘기했지만	-11.2266
▁그리는	-11.2268
▁최소한	-11.2272
▁올라가면	-11.2277
▁파리	-11.2278
▁웹	-11.2279
뿐	-11.2279
▁법적으로	-11.2285
▁조건이	-11.2287
▁배변	-11.2289
▁누구야	-11.2293
▁시급	-11.2296
▁사람들만	-11.2297
▁투자하는	-11.2302
▁틀린	-11.2303
▁범위	-11.2303
▁조명	-11.2306
스크	-11.231
▁레이	-11.231
▁이번에도	-11.2314
▁구할	-11.2316
▁과외	-11.2317
▁메이크업	-11.2318
발을	-11.2321
▁되었는데	-11.2322
▁빨라	-11.2323
▁자기를	-11.2324
▁말처럼	-11.2324
▁티가	-11.2325
일에	-11.2327
▁결혼이	-11.2327
▁차별	-11.2333
▁울고	-11.2335
▁가시는	-11.2335
▁진학	-11.2339
▁푹	-11.234
▁의존	-11.234
▁결혼하면	-11.2343
▁찾아보면	-11.2344
▁어렵다고	-11.2345
▁뿐이지	-11.2345
▁친구와	-11.2345
▁고수	-11.2346
▁예정	-11.2349
▁가기가	-11.2351
▁따르	-11.2353
▁하는구나	-11.2357
▁고등학교를	-11.2358
이었	-11.2358
▁노래들이	-11.2361
▁타이밍	-11.2361
했었잖아	-11.2365
▁고소	-11.2365
▁예능을	-11.2365
볶	-11.2366
▁존경	-11.2367
▁조직	-11.2367
▁래퍼	-11.2367
▁직원들	-11.2373
▁역할이	-11.2377
▁특성	-11.2378
▁여자들은	-11.2379
▁당황	-11.2381
▁집에서도	-11.2382
▁올라와	-11.2382
▁미역국	-11.2385
균	-11.2386
▁여동생	-11.2388
▁가르치는	-11.2393
▁못하게	-11.2396
▁우려	-11.2399
였을	-11.24
▁사다가	-11.2403
생이	-11.2407
▁운이	-11.2408
▁이후	-11.2409
▁일식	-11.2409
▁고향	-11.2412
▁이만큼	-11.2415
▁없대	-11.242
즉	-11.242
▁해외로	-11.2421
▁창업	-11.2422
▁대하는	-11.2423
▁누군가가	-11.2424
▁본다	-11.2427
▁하려면은	-11.2428
▁코로나로	-11.2428
▁기획	-11.2439
▁듯한	-11.2441
린다고	-11.2441
▁결론	-11.2443
▁사람들에	-11.2446
쭈	-11.2448
▁차고	-11.2448
▁슬퍼	-11.2449
사항	-11.2449
▁생기지	-11.2454
▁번역	-11.2456
▁도망	-11.2458
▁토론	-11.2461
▁드네요	-11.2464
으로만	-11.2466
▁가족을	-11.2466
▁이상형이	-11.2467
▁왔었	-11.2473
없	-11.2475
▁흔들	-11.2475
▁인생이	-11.2477
▁직장이	-11.2479
겠다라는	-11.248
▁배우들이	-11.248
▁남한테	-11.2481
▁신기했어	-11.2481
▁동갑	-11.2483
톱	-11.2484
놔	-11.2491
▁이어폰	-11.2492
▁만만치	-11.2492
▁액세서리	-11.2497
졌는데	-11.2505
벤	-11.2507
▁하나에	-11.2508
▁눌러	-11.2513
▁골라서	-11.2514
▁감당	-11.2515
▁사도	-11.2515
▁지금처럼	-11.252
▁인성	-11.252
▁간혹	-11.252
▁물어본	-11.2522
▁화학	-11.2525
쌈	-11.2526
▁생각해보면	-11.2529
▁블루	-11.253
신데	-11.253
▁걔네는	-11.2531
단계	-11.2535
▁없던	-11.2535
▁선택하는	-11.2536
▁시집	-11.2537
▁잡히	-11.2537
▁어떠	-11.2538
▁경우를	-11.2538
▁핸드폰이	-11.2541
▁전까지는	-11.2541
▁오시	-11.2544
▁않으면은	-11.2544
▁상담을	-11.2544
▁옆집	-11.2546
▁엔시티	-11.2546
▁드라마도	-11.2547
▁분야에	-11.255
▁싸운	-11.255
하더라도	-11.2551
▁조용히	-11.2551
▁기준을	-11.2557
▁보이는데	-11.2558
앙	-11.2559
▁이웃	-11.2561
▁거였어	-11.2564
들하고	-11.2568
▁친척들	-11.2569
▁솔직하게	-11.2569
▁번째로	-11.257
▁늘리	-11.2571
▁성격에	-11.2574
▁문제점	-11.2578
▁보여주	-11.2578
▁아파트에서	-11.2581
▁사람으로	-11.2581
▁아니까	-11.2584
하기보다는	-11.259
▁우리랑	-11.2591
▁아니구나	-11.2592
▁어른이	-11.2593
▁않더라도	-11.2597
▁다니지	-11.2597
▁영화에서	-11.2602
적이지	-11.2604
▁비교를	-11.2604
▁하든지	-11.2605
▁모이는	-11.2608
▁보수	-11.2609
▁표정	-11.261
▁위생	-11.261
▁나만의	-11.2613
▁재즈	-11.2613
▁챙기고	-11.2613
▁말인데	-11.2619
▁집에만	-11.2619
▁진출	-11.2621
▁잘해야	-11.2624
▁장기적으로	-11.2628
▁지출	-11.2629
▁반영	-11.263
▁들어보면	-11.2632
▁여러가지	-11.2633
▁스크린	-11.2634
▁좋아하지만	-11.2638
▁부작용	-11.264
▁실험	-11.264
람	-11.2641
깐	-11.2652
▁없게	-11.2655
▁말하기	-11.2657
▁합의	-11.2657
▁대출을	-11.2663
▁가벼운	-11.2667
▁넣을	-11.2668
▁스타일을	-11.2671
▁되겠구나	-11.2673
▁버킷	-11.2678
▁먹을까	-11.2681
▁동거	-11.2681
델	-11.2682
▁고장	-11.2685
버린	-11.2686
▁자녀들	-11.2689
▁담배를	-11.2691
▁땀이	-11.2691
카드	-11.2693
▁대답을	-11.2695
▁많지는	-11.2702
▁나오더라고요	-11.2702
▁뱀	-11.2704
▁집사람	-11.2704
▁소비자	-11.2705
▁그렇네	-11.2705
▁대단하다	-11.2706
▁방송에서	-11.2707
▁그죠	-11.2708
▁달라지는	-11.2711
▁손해배상	-11.2712
▁만들면	-11.2714
뚜	-11.2717
▁맛있지	-11.2722
▁추구	-11.2726
▁잘돼	-11.2726
▁싶으면은	-11.2728
▁그런데도	-11.2728
▁속으로	-11.2728
들어	-11.2729
▁썼던	-11.2729
▁중요해	-11.2732
옷	-11.2732
▁바쁜	-11.2734
▁질리	-11.2736
▁아시는	-11.2736
▁파트	-11.2736
▁베란다	-11.2739
▁옷에	-11.2743
▁시장에	-11.2745
▁특수	-11.2745
▁그랬으면	-11.2745
▁편입	-11.2747
▁저축	-11.2748
▁대책	-11.2749
▁헬	-11.2749
▁사귀고	-11.2753
▁들어가니까	-11.2753
▁동아리를	-11.2754
▁말씀하셨던	-11.2755
▁지역을	-11.2757
▁에어	-11.2757
▁감사합니다	-11.2757
▁편하긴	-11.2758
▁무료로	-11.2759
▁프랜차이즈	-11.2762
▁없거든요	-11.2765
▁머릿속에	-11.2767
▁발라	-11.2768
▁좋대	-11.277
▁달라진	-11.277
▁받으면서	-11.2771
▁현상	-11.2774
▁보기가	-11.2778
▁뜨고	-11.2783
▁영상이	-11.2784
▁싫어하고	-11.2784
▁시끄럽	-11.2786
▁어쩌	-11.2789
거리고	-11.2789
▁기억해	-11.2789
▁운전면허	-11.2792
▁예능이	-11.2803
▁추천하는	-11.2804
▁나네요	-11.2804
▁상처를	-11.2804
번쯤	-11.2805
▁뜻이	-11.2806
▁벚꽃	-11.2807
달러	-11.2808
▁시도를	-11.2809
▁동해	-11.2811
▁재밌어서	-11.2812
▁비형	-11.2813
순이	-11.2814
▁헐	-11.2815
씹	-11.2816
▁운동장	-11.2816
▁만족을	-11.2817
▁느끼지	-11.2818
▁괜찮았어	-11.2818
▁뉴스가	-11.2818
▁초에	-11.2819
▁매주	-11.2822
▁경영	-11.2823
▁알바도	-11.2824
▁만들어진	-11.2829
▁엄마의	-11.2831
▁설치하는	-11.2831
▁다루는	-11.2832
▁이런데	-11.2832
보자	-11.2833
▁인터넷을	-11.2833
▁싶네	-11.2837
▁반응	-11.2838
▁공통	-11.2839
▁그거야	-11.284
한텐	-11.284
▁놀면	-11.284
업을	-11.2842
▁오라고	-11.2844
▁몸무게	-11.2848
▁쇼핑할	-11.285
▁아프다	-11.2853
▁낫다	-11.2855
꽂	-11.2859
▁달랐	-11.2859
▁돼가지고	-11.2862
▁훈련을	-11.2863
룸	-11.2864
▁그분은	-11.2865
품이	-11.2866
▁스트레칭	-11.2869
▁빼는	-11.2872
▁절반	-11.2874
▁권리	-11.2874
▁왔거든	-11.2875
▁차이는	-11.2876
▁몸으로	-11.2876
▁만났는데	-11.2881
덜	-11.2881
로운	-11.2883
머리	-11.2884
▁책임감	-11.2886
▁생각인데	-11.2889
센터	-11.289
놓	-11.2895
튜	-11.2897
▁외출	-11.29
▁알아봐	-11.2902
▁작성	-11.2903
▁쇼미더머니	-11.2903
▁인테리어를	-11.2906
▁바꾸는	-11.291
▁맞습니다	-11.2911
쫌	-11.2914
▁간단	-11.2916
군요	-11.2917
량을	-11.2917
▁편견	-11.2918
▁얘들	-11.2919
▁사소한	-11.292
▁열차	-11.292
▁나오거든	-11.292
▁남자애	-11.2922
▁먹었잖아	-11.2922
▁헤어	-11.2922
▁아이돌을	-11.2922
껏	-11.2925
▁고슴도치	-11.2925
▁확실한	-11.2925
▁익숙	-11.2929
▁하는데요	-11.2929
리지	-11.2931
▁가사를	-11.2934
▁아니었는데	-11.2934
적으로는	-11.2941
▁부분들은	-11.2948
▁됐으니까	-11.2949
▁고를	-11.2952
▁팀을	-11.2952
▁목욕	-11.2954
▁전공이	-11.2956
▁오메가	-11.296
▁맞아야	-11.2961
▁쉽지는	-11.2966
▁후배	-11.2969
▁라디오	-11.2971
년은	-11.2971
▁단독	-11.2973
▁싶어도	-11.2977
▁좋기	-11.2981
▁적극	-11.2983
▁드레스	-11.2983
▁못하니까	-11.2984
▁양말	-11.2986
▁인생에	-11.2987
▁살림	-11.2988
▁오형	-11.2989
▁작가가	-11.299
▁작품이	-11.2994
▁중고등학교	-11.2995
▁않는다	-11.2996
▁키우는데	-11.2996
▁환경에	-11.2998
▁피아노를	-11.2998
▁싸워	-11.2999
▁주민	-11.2999
뱅	-11.3
▁나가기	-11.3006
서부터	-11.3007
▁떨어지면	-11.3008
▁배우를	-11.3009
▁콘셉트	-11.3011
봐서	-11.3011
▁선택한	-11.3011
▁레슨	-11.3012
▁들기는	-11.3013
▁경제적	-11.3014
▁프리랜서	-11.3017
▁까먹	-11.3019
▁게임도	-11.3021
▁같지만	-11.3022
▁생각하는지	-11.3024
▁경치	-11.3024
▁잡혀	-11.3025
▁공간에	-11.3029
▁이따가	-11.3029
▁무엇이	-11.3032
▁물질	-11.3033
▁의심	-11.3037
▁어디든	-11.3039
▁봤었던	-11.304
▁찬성을	-11.3042
▁근처에서	-11.3042
▁먹어야지	-11.3046
스러	-11.3046
▁어울릴	-11.3047
▁피부가	-11.3056
▁푸들	-11.3057
▁다가오	-11.3058
▁거냐	-11.3059
▁참치	-11.3061
▁엑소	-11.3063
▁기차를	-11.3064
▁카드를	-11.3067
▁소비를	-11.3067
▁부모님들이	-11.3067
자라고	-11.307
▁지원해	-11.3073
리아	-11.3075
▁흘러	-11.3075
▁시작하면	-11.3077
▁얘기하면서	-11.3079
▁음식들이	-11.3079
김	-11.3079
▁해당	-11.308
▁동호회	-11.308
▁휴학	-11.3081
▁정신이	-11.3081
▁피곤해	-11.3082
▁얘기하다	-11.3083
겠냐	-11.3085
▁됐거든	-11.3086
▁재밌긴	-11.3086
▁조금은	-11.309
▁가능하	-11.3093
▁거주	-11.3094
▁자격	-11.3095
▁기르	-11.3097
▁설계	-11.3101
▁습득	-11.3104
▁대사	-11.3106
▁정성	-11.3106
▁차에	-11.3108
▁복잡하	-11.3114
▁이때까지	-11.3117
▁이겨	-11.3119
▁식구	-11.312
▁세우	-11.3121
▁조언을	-11.3122
덤	-11.3125
▁그렇습니다	-11.3127
▁엄마를	-11.313
▁착용	-11.3133
▁패턴	-11.3134
시간을	-11.3136
▁손주	-11.3136
▁서울은	-11.3139
▁편이고요	-11.3139
붕	-11.3144
▁기쁨	-11.3145
▁문화를	-11.3145
세를	-11.3147
▁재밌었고	-11.3147
▁잘생겼	-11.315
▁강의를	-11.3153
▁그룹이	-11.3154
▁라면을	-11.3158
▁가까워	-11.3159
▁소음이	-11.3162
먹는	-11.3164
▁부분인	-11.3165
▁넷플릭스에서	-11.3166
하셨어요	-11.3168
▁계세요	-11.3168
▁보컬	-11.3171
셀	-11.3176
냐면은	-11.3178
쌍	-11.3179
▁알고리즘	-11.3179
드린	-11.3179
▁갈등	-11.3183
▁채우	-11.3184
척	-11.3184
▁부동산에	-11.3185
▁유기	-11.3186
▁일하면서	-11.3188
놓은	-11.3189
▁맞긴	-11.3193
▁왔고	-11.3193
▁특유의	-11.3197
치면서	-11.3198
▁일일이	-11.32
▁내놓	-11.3203
섬	-11.3204
▁검색해	-11.3205
장에서	-11.3206
▁버티	-11.3209
500	-11.3209
▁대전에	-11.3209
구가	-11.3214
▁검진을	-11.3214
▁면을	-11.3216
▁된장찌개	-11.322
▁버전	-11.3221
▁갈지	-11.3227
▁빠질	-11.3228
▁열리	-11.3228
▁병행	-11.323
▁언제까지	-11.3232
컴	-11.3237
관이	-11.3239
젖	-11.3242
국이	-11.3246
▁마주	-11.3256
▁못하겠	-11.3256
▁입사	-11.3258
▁몰려	-11.3259
▁이쁘게	-11.326
았다	-11.3262
율이	-11.3263
▁나가지	-11.3265
▁먹으라고	-11.3267
▁이쁘고	-11.3269
홀	-11.3271
▁동창	-11.3271
▁대통령	-11.3275
▁학원에서	-11.3276
▁최선을	-11.3279
▁원작	-11.3281
▁관심도	-11.3282
인가요	-11.3285
▁아껴	-11.3294
▁찍을	-11.3296
▁생겼을	-11.3296
▁누군지	-11.3296
밖	-11.3297
▁여행지가	-11.3298
▁살아서	-11.3299
▁개그	-11.33
▁같지는	-11.3305
▁꾸준하게	-11.3308
▁김에	-11.3311
▁작업을	-11.3313
▁덥고	-11.3314
▁계기	-11.3316
▁있겠네	-11.3317
▁텐트	-11.3318
▁그린	-11.3321
▁양보	-11.3321
▁얘기했는데	-11.3323
▁형도	-11.3328
▁그러니	-11.3331
완	-11.3332
▁청바지	-11.3332
▁해결이	-11.3333
▁음악도	-11.3337
었단	-11.3341
▁편이거든요	-11.3341
▁한국어	-11.3341
▁먹거든	-11.3344
▁애니	-11.3345
▁서로의	-11.3346
우면	-11.3346
▁느낌이야	-11.3347
▁일반인	-11.3348
▁해결을	-11.3349
귤	-11.335
▁패드	-11.3352
▁보낸	-11.3352
역에	-11.3353
▁늘어나고	-11.3353
▁신입	-11.3355
원이면	-11.3355
▁장어	-11.3358
▁수익이	-11.3359
▁메인	-11.3359
▁봤었거든	-11.336
▁마트에서	-11.336
▁진실	-11.3362
▁핑계	-11.3362
▁제약	-11.3363
▁식단을	-11.3364
▁부모님도	-11.3367
▁책도	-11.3367
▁그쪽은	-11.3368
▁절약	-11.3371
▁울릉도	-11.3373
▁않나라는	-11.3374
▁괜찮겠다	-11.3375
빚	-11.3377
▁가더라도	-11.3378
▁나물	-11.3382
싸	-11.3383
▁얘기해서	-11.3385
▁기아	-11.3386
▁폐기물	-11.3393
▁주민들	-11.3395
컷	-11.3396
베이	-11.3396
▁식의	-11.3397
▁캐릭터가	-11.3397
▁친해지고	-11.3397
▁풋살	-11.3397
▁외곽	-11.3398
▁수박	-11.3398
▁회장	-11.3399
▁받아들이	-11.34
진다	-11.34
▁아쉽긴	-11.3419
▁선배들	-11.342
▁족발	-11.3422
▁복싱	-11.3422
▁반응이	-11.3425
▁결혼도	-11.3425
▁고등어	-11.3427
▁이것을	-11.3429
랜	-11.343
▁바깥	-11.3433
▁잘라	-11.3435
▁21	-11.3438
▁답이	-11.3439
▁중국어	-11.3439
▁직업에	-11.3443
▁오신	-11.3446
▁슬슬	-11.3446
▁드시고	-11.3448
▁하지만은	-11.3451
흉	-11.3456
▁데려오	-11.3457
▁인물	-11.346
▁살려고	-11.3461
▁일상생활	-11.3465
보기	-11.3465
▁얼른	-11.347
▁고맙	-11.3474
▁봤었고	-11.3475
턴	-11.3475
▁성능	-11.3477
▁가능	-11.3479
▁일어나면	-11.3481
▁쿠션	-11.3481
▁아르바이트가	-11.3482
졌다고	-11.3486
▁입은	-11.3488
▁바나나	-11.3488
▁가지게	-11.3497
▁건강도	-11.3497
▁거거든요	-11.3498
▁도와주는	-11.35
▁처방	-11.35
▁상상을	-11.35
▁경계	-11.3503
▁그러냐면	-11.3504
▁가졌	-11.3506
▁공급	-11.3506
▁태워	-11.3508
▁어려웠	-11.351
▁말씀드리	-11.3514
▁말아	-11.3519
▁형성	-11.3521
▁짓고	-11.3522
▁쇼츠	-11.3524
▁고르는	-11.3524
▁얼마든지	-11.3527
▁목표는	-11.353
버리	-11.3532
률이	-11.3532
▁맡기	-11.3532
▁자체에	-11.3533
▁끝에	-11.3534
▁강아지들이	-11.3539
▁가나	-11.354
▁먹던	-11.3542
으론	-11.3543
▁요리가	-11.3552
▁법제화	-11.356
시티	-11.356
▁금융	-11.3562
▁구매할	-11.3566
파크	-11.3567
▁박사	-11.3568
▁알겠지만	-11.3568
▁하체	-11.3569
▁그만두	-11.357
▁교통비	-11.357
▁당기	-11.3571
▁올라온	-11.3573
▁불편할	-11.3574
계절	-11.3576
▁체형	-11.3579
▁유지하는	-11.3584
▁어렵게	-11.3588
▁전문적으로	-11.3591
▁좋아했고	-11.3597
▁발전소가	-11.3597
▁휴식	-11.3598
곰	-11.3602
▁블랙핑크	-11.3602
당하는	-11.3605
▁때보다	-11.3607
▁좋아하고요	-11.3612
▁왔으면	-11.3613
▁생겼는데	-11.3614
▁모으는	-11.3616
▁되었고	-11.3617
▁썼는데	-11.3617
▁우울	-11.3618
▁되었습니다	-11.3619
▁엠비티아이는	-11.362
▁매매	-11.362
▁와중에	-11.3621
▁기타를	-11.3622
▁다르긴	-11.3624
▁귀신	-11.3624
▁조사	-11.3627
▁빠져서	-11.3627
▁눈물이	-11.3629
▁접해	-11.3629
▁오르는	-11.3632
▁챙기는	-11.3632
들로	-11.3633
▁오셨	-11.3635
▁심심	-11.3638
▁에이형	-11.3639
▁잔잔한	-11.3641
▁산소	-11.3641
▁없었거든	-11.3644
▁타면서	-11.3644
▁의류	-11.3648
▁태어났	-11.3651
▁교통이	-11.3653
▁주셔	-11.3653
▁분들을	-11.3654
▁됐나	-11.3658
▁놓으면은	-11.366
▁말하자면	-11.3662
▁고렇게	-11.3663
▁제시	-11.3666
▁말씀하시는	-11.3668
▁공개	-11.367
▁교양	-11.3672
▁배터리	-11.3676
▁150	-11.3677
▁키웠는데	-11.3678
▁일어나고	-11.3679
▁학원에	-11.368
▁차량	-11.3681
▁생명을	-11.3681
▁맡겨	-11.3682
▁깨끗하게	-11.3687
▁맞추는	-11.3687
▁직관	-11.3687
address	-11.3688
폼	-11.3688
▁메시지	-11.369
▁나갔다	-11.369
장도	-11.3692
▁자가용	-11.3693
▁터키	-11.3695
▁필요해	-11.3695
▁아무런	-11.3697
▁나와야	-11.3697
▁사태	-11.3698
▁쉽고	-11.3699
▁안돼	-11.3699
▁태어난	-11.37
엄	-11.3701
▁대상	-11.3702
▁품질	-11.3703
▁쓰리	-11.3707
▁설레	-11.3711
▁적응을	-11.3712
챗	-11.3712
▁늘어	-11.3716
▁탈출	-11.3716
▁다행인	-11.3721
▁미안한	-11.3731
▁하여간	-11.3732
▁쓰던	-11.3732
▁내부	-11.3732
▁수술실	-11.3732
▁이유도	-11.3734
▁엠티	-11.3736
▁지피티	-11.3737
▁답답하	-11.3738
▁된장	-11.3738
▁길러	-11.374
▁아홉	-11.3742
▁비대면을	-11.3742
▁개인이	-11.3743
웨이	-11.3743
▁싶지만	-11.3743
▁끊었	-11.3743
▁신세계	-11.3743
▁남편도	-11.3745
▁주차장	-11.3746
▁커지	-11.3747
▁얘기만	-11.3747
터미널	-11.3749
▁써도	-11.375
▁사고를	-11.3751
▁배달을	-11.3752
▁세우고	-11.3752
▁생각하기에	-11.3753
▁부동산이	-11.3753
▁방법인	-11.3755
▁다녔었	-11.3756
▁닭갈비	-11.3756
▁결혼하기	-11.3758
▁걱정도	-11.3759
▁신기하	-11.3759
▁않는다고	-11.3759
▁고기가	-11.3764
▁능력을	-11.3765
옹	-11.3768
▁미술관	-11.3772
▁골프를	-11.3772
▁여건이	-11.3773
▁수행	-11.3775
▁들더라	-11.3776
▁세월이	-11.3777
학과를	-11.3779
▁싶네요	-11.378
▁내용은	-11.378
▁김치를	-11.3784
▁옛날엔	-11.3784
상에	-11.3785
▁오후	-11.3786
▁작고	-11.3786
▁절대로	-11.3787
▁위주	-11.3787
▁나간다	-11.3791
▁에어팟	-11.3793
▁풀고	-11.3793
▁잔소리	-11.3794
끔	-11.3794
▁돌리	-11.3794
▁구경하고	-11.3796
호선이	-11.3799
인들이	-11.3803
▁들거든요	-11.3804
▁장소가	-11.3805
▁바닥에	-11.3807
띄	-11.3811
잠	-11.3812
▁편리하	-11.3813
▁인력	-11.3814
▁잘해서	-11.3815
▁힘들었는데	-11.3816
▁놓을	-11.3819
▁남아서	-11.382
▁편리함	-11.3822
▁이해해	-11.3822
▁근로	-11.3826
▁스파	-11.3827
▁잘한	-11.3828
▁말씀하시	-11.3828
▁노력은	-11.3829
▁중국에서	-11.3834
▁상대적으로	-11.3835
▁않았을	-11.3835
▁복숭아	-11.3836
▁가리	-11.3836
▁목걸이	-11.3836
▁귀찮아서	-11.3837
▁몰아	-11.3838
쓸	-11.384
▁멋진	-11.3843
▁맛있더라고요	-11.3846
▁이해할	-11.3848
▁목줄	-11.3853
▁이동을	-11.3856
▁조절을	-11.3857
▁청소년들	-11.3858
▁직장인	-11.3862
▁관심은	-11.3863
▁선정	-11.3864
▁안전하게	-11.3864
느라고	-11.3865
된다	-11.3866
성도	-11.3866
▁좋아한	-11.3867
▁편안한	-11.3867
▁되는구나	-11.3868
▁미안해	-11.3869
▁조금만	-11.387
▁어르신들이	-11.3871
▁신어	-11.3874
▁공간을	-11.3881
▁고기도	-11.3881
▁보리	-11.3882
▁우울증	-11.3883
▁글쎄요	-11.3884
▁좋죠	-11.3884
스럽고	-11.3886
▁기다려야	-11.3888
▁거밖에	-11.3888
▁말만	-11.3889
▁해석	-11.3889
▁물어볼	-11.3893
▁좋아질	-11.3894
▁요번	-11.3895
▁않겠다	-11.3897
▁올린	-11.3898
▁바빠	-11.3903
▁부모님은	-11.3904
또	-11.3906
▁적고	-11.3908
▁제한이	-11.3911
▁생각한다	-11.3913
▁나처럼	-11.3917
▁전체적인	-11.3919
▁시작하고	-11.3921
▁한약	-11.3926
▁쓰다	-11.3927
▁일인	-11.3927
▁병원비	-11.393
▁짜는	-11.3933
▁야근	-11.3933
▁소중한	-11.3937
시간이	-11.3937
▁치마	-11.3938
▁가능성	-11.394
▁한라산	-11.3944
▁가슴이	-11.3945
주니까	-11.3948
▁아르바이트는	-11.3951
▁벌어야	-11.3952
법이	-11.3952
▁한의원	-11.3953
▁개성	-11.3954
▁문제로	-11.3958
▁스포츠가	-11.3959
▁시행	-11.3959
▁고용	-11.3961
▁영어로	-11.3963
관계	-11.3965
분에	-11.3966
시더라고	-11.3968
▁패키지로	-11.3968
▁비싸다	-11.3969
▁인프라	-11.3974
▁얼음	-11.3977
▁순수	-11.398
▁일어난	-11.3981
▁평수	-11.3981
구나라고	-11.3987
몬	-11.3992
▁상황인데	-11.3992
▁발목	-11.3992
▁중식	-11.3992
▁기본이	-11.3994
부리	-11.3995
▁선택해서	-11.3996
▁밑에서	-11.3997
월드	-11.3999
▁기생충	-11.4
텀	-11.4
▁내려오	-11.4
▁지식이	-11.4
▁용돈을	-11.4001
▁어렵더라고	-11.4002
▁기억으로	-11.4003
▁그렇겠지	-11.4004
▁메뉴가	-11.4006
▁저보다	-11.4007
간에	-11.4007
▁인공지능	-11.4008
▁이엔에프피	-11.4012
거리가	-11.4016
▁지루하	-11.4016
▁아버님이	-11.4017
▁교수님들	-11.4019
▁양쪽	-11.402
달라	-11.4024
벼	-11.4029
랩	-11.4034
▁마이	-11.4034
▁쓰면은	-11.4036
▁골고루	-11.4038
▁보던	-11.404
▁준비해야	-11.404
파이브	-11.4041
▁대우	-11.4043
▁디자인이	-11.4045
▁저녁을	-11.4047
▁나왔으면	-11.4047
▁되겠지만	-11.4051
▁경우엔	-11.4052
조차	-11.4055
▁조선	-11.4057
▁저장	-11.4057
▁찾아야	-11.4058
▁대응	-11.4058
▁목표로	-11.406
▁여기까지	-11.4067
▁가방을	-11.407
▁놀다가	-11.4071
▁낭만	-11.4073
자의	-11.4073
▁카카오톡	-11.4076
▁응응	-11.4077
주세요	-11.4078
웠던	-11.4079
▁부분들도	-11.4079
▁친해진	-11.408
▁조언	-11.408
▁재질	-11.4082
▁맛있는데	-11.4084
▁주제를	-11.4085
첨	-11.4085
주시고	-11.4085
▁오프라인으로	-11.4086
▁다이어트에	-11.4088
▁설득	-11.409
▁대형견	-11.409
▁에버랜드	-11.4095
▁먹었지	-11.4096
▁구입을	-11.4097
윗	-11.41
▁아름답	-11.4102
▁높아지	-11.4103
▁인생의	-11.4104
▁결과를	-11.4104
▁놀았던	-11.4106
▁하기로	-11.4106
▁도마뱀	-11.4108
▁생활하면서	-11.4108
▁모으고	-11.4108
▁팬들	-11.4109
▁쪽이나	-11.4115
분한테	-11.4119
▁흐르	-11.412
▁심각한	-11.4121
▁서양	-11.4124
▁다양해	-11.4127
되면서	-11.4127
▁각각	-11.4131
복이	-11.4133
뿌	-11.4134
▁아니더라고	-11.4135
▁올라와서	-11.4137
▁행동이	-11.4139
▁재밌겠다	-11.4139
▁디지털	-11.414
▁갖춰	-11.414
▁눈치를	-11.4142
▁알레르기가	-11.4143
원씩	-11.4147
▁숙제	-11.4147
시다	-11.4149
▁또다시	-11.4149
▁가격대가	-11.4151
▁아이돌들	-11.416
▁스피커	-11.4166
▁위험하	-11.4167
▁선수를	-11.417
▁부럽다	-11.4172
분들도	-11.4172
▁노하우	-11.4179
▁돌아다니고	-11.4183
▁종류도	-11.4186
▁피가	-11.4188
▁등교	-11.4189
▁오잖아	-11.419
▁모른다	-11.4195
양이	-11.4195
▁방사능	-11.4198
▁연세가	-11.4198
쇼	-11.4198
▁물어봐	-11.4199
▁들었거든요	-11.42
▁나쁘게	-11.42
▁먹더라고	-11.42
▁자식을	-11.4202
등이	-11.4202
▁명절에	-11.4203
▁망고	-11.4207
▁보이니까	-11.4208
▁치워	-11.421
쩍	-11.4211
▁많으신	-11.4211
▁아무거나	-11.4212
스토	-11.4215
▁손님들	-11.4215
▁나누고	-11.422
판이	-11.4222
멋	-11.4224
▁가리는	-11.4224
▁기능을	-11.4225
밤	-11.4229
▁체계	-11.4229
▁판매를	-11.423
▁즐거움	-11.4231
▁별거	-11.4239
▁소개를	-11.424
▁심장	-11.424
용이	-11.4241
▁날에는	-11.4241
▁쓴다	-11.4241
▁입주	-11.4245
▁교정	-11.4246
▁자랐	-11.4247
▁도망가	-11.425
▁친절	-11.4252
▁말자	-11.4254
▁많았잖아	-11.4254
▁지키는	-11.4255
흠	-11.4256
년째	-11.4257
▁만나야	-11.4258
▁쪼끔은	-11.4259
▁이후에는	-11.4261
▁고양이들이	-11.4263
▁친구로	-11.4265
▁수명이	-11.4268
▁달아	-11.4269
▁키우다가	-11.4274
▁강도	-11.4275
▁나라는	-11.4278
▁도와주고	-11.4285
▁살려	-11.4287
▁음악은	-11.4289
▁본인은	-11.429
▁수용	-11.4291
▁갈래	-11.4293
▁대학에	-11.4294
▁출장	-11.4296
시에서	-11.4298
▁봄이	-11.4299
▁직장에	-11.4302
▁가족의	-11.4308
▁다루	-11.431
▁약이	-11.4315
▁순간부터	-11.4316
했거든요	-11.4317
▁스타일은	-11.4318
▁들어가면은	-11.4319
▁바에는	-11.4326
▁쉬워	-11.4329
워서	-11.4331
▁구하는	-11.4334
겐	-11.4334
▁부상	-11.4335
▁개발을	-11.4338
▁얼굴도	-11.4339
었으니까	-11.4339
▁유전	-11.4342
▁사교육	-11.4342
▁이유를	-11.4346
▁좋네	-11.4346
지면은	-11.4347
▁무서웠	-11.4348
▁언니네	-11.4348
▁공간에서	-11.435
▁컨트롤	-11.4354
▁대체를	-11.4356
▁선호해	-11.436
빔	-11.4361
▁진행이	-11.4361
▁만나면서	-11.4361
▁좀비	-11.4362
▁미스터	-11.4363
▁청소년들이	-11.4368
▁되니깐	-11.4369
▁걔한테	-11.4371
▁뮤지컬을	-11.4372
▁추구하는	-11.4373
▁고속버스	-11.4374
▁맛있어서	-11.4377
▁마감	-11.4377
▁인권	-11.4379
▁부부가	-11.4379
뽀	-11.4381
▁예민하	-11.4381
▁지속	-11.4384
▁재료를	-11.4385
▁부담감	-11.4389
▁가져야	-11.4394
▁되더라	-11.4397
▁손해를	-11.4397
학교	-11.4404
▁선생	-11.4404
품을	-11.4405
▁제외하고	-11.4407
▁실수를	-11.4407
▁왔다고	-11.4408
▁아니잖아요	-11.4409
잖	-11.4412
▁현상이	-11.4413
▁친해지	-11.4413
▁전용	-11.4415
▁분야에서	-11.4415
▁영화로	-11.4415
▁알아봐야	-11.4418
▁남기	-11.442
▁대구에	-11.442
▁비트	-11.4424
▁구축	-11.4426
마트	-11.4426
▁당장은	-11.4432
틱	-11.4438
▁남편하고	-11.4444
줘요	-11.4444
▁호감	-11.4444
▁걱정되는	-11.4446
▁이루어지	-11.4448
▁요리하는	-11.445
▁평일	-11.4451
▁언제부터	-11.4454
▁양도	-11.4454
여행	-11.4455
▁장점인	-11.4457
▁나쁘	-11.4457
▁찾아보니까	-11.4458
깡	-11.446
▁내리고	-11.446
▁욕구	-11.4462
▁가격대	-11.4462
▁동생도	-11.4464
▁돌아보	-11.4465
▁사춘기	-11.4467
▁확신	-11.4467
▁밥이	-11.4473
▁주제로	-11.4473
럴	-11.4474
덩	-11.4476
▁프로를	-11.4482
났다	-11.4482
▁하얀	-11.4484
함에	-11.4488
▁티빙	-11.4489
▁알았거든	-11.4492
셨는지	-11.4496
▁그곳	-11.4497
걸음	-11.4498
▁들으면은	-11.4499
▁지문	-11.4499
▁아니었고	-11.4501
▁손절	-11.4505
▁빼야	-11.4509
▁방해	-11.4509
▁인상이	-11.4514
▁못했어	-11.4514
▁않았거든	-11.4515
특	-11.4515
▁사람보다	-11.4518
▁반도체	-11.452
▁신혼	-11.4522
▁의학	-11.4522
▁채용	-11.4523
드려야	-11.4524
▁아쉬웠던	-11.4524
▁간식을	-11.4524
▁개개인	-11.4527
▁뭘까	-11.4527
▁기대가	-11.453
▁않네	-11.453
▁신랑은	-11.4531
▁재미로	-11.4534
▁다니던	-11.4535
▁나왔고	-11.4537
개의	-11.4545
▁유명하잖아	-11.4546
▁대체적으로	-11.4547
▁계신가요	-11.4548
▁요소가	-11.4548
▁내릴	-11.455
▁사람으로서	-11.4551
▁학대	-11.4551
▁많아지는	-11.4552
▁잡아야	-11.4554
▁올라서	-11.4555
▁빠르고	-11.4556
▁여러분들	-11.4558
▁이하	-11.456
▁둘러	-11.4564
▁운동에	-11.4565
라던가	-11.4567
▁맞춰야	-11.4569
▁혜택	-11.457
▁엄마들이	-11.457
▁딸도	-11.4572
▁타러	-11.4574
▁그저	-11.4574
▁기업이	-11.4576
▁이거지	-11.4577
▁지금까지도	-11.4579
▁우리집	-11.4579
썰	-11.4581
▁따지	-11.4581
▁것이다	-11.4581
▁보상을	-11.4581
▁프로그램에	-11.4583
▁좋았거든	-11.4583
템	-11.4584
▁기계를	-11.4584
푼	-11.4587
▁좋았다	-11.4591
▁와가지고	-11.4592
▁있느냐	-11.4592
▁논란이	-11.4597
▁요금이	-11.46
칩	-11.46
▁팔리	-11.4601
▁잡으면	-11.4602
었기	-11.4602
▁되도록이면	-11.4606
▁던져	-11.4606
▁처벌을	-11.4607
▁청첩장	-11.4607
▁드셔	-11.4608
▁부담을	-11.4608
▁소속	-11.4611
▁흥미	-11.4612
▁살아가	-11.4613
▁살아갈	-11.4615
▁야채를	-11.4615
▁각자의	-11.4617
▁누구를	-11.4618
테크	-11.4619
▁것인지	-11.4627
했었습니다	-11.4627
▁성향을	-11.4628
▁실업	-11.4628
준다고	-11.463
▁나오게	-11.4631
▁갔었을	-11.4632
▁병아리	-11.4634
▁자기랑	-11.4635
▁빌리	-11.4639
▁있겠어	-11.4641
▁홍삼	-11.4641
▁맘대로	-11.4643
▁걱정되	-11.4645
▁정도면은	-11.4647
부턴	-11.4648
▁말씀드린	-11.4648
▁되죠	-11.4649
▁돌리고	-11.4649
▁나눌	-11.4649
▁부동산을	-11.465
▁운영하는	-11.4652
▁교감	-11.4653
▁친해질	-11.4653
▁아프지	-11.4654
▁내려갔	-11.4655
놔서	-11.4656
▁우주	-11.4657
▁프레	-11.4657
▁개발자	-11.4658
▁강하게	-11.466
▁힘들어요	-11.4662
판을	-11.4664
▁노래만	-11.4665
했나	-11.4667
▁케어를	-11.4668
▁아파트는	-11.467
▁숙소를	-11.4671
▁생각났는데	-11.4671
그러	-11.4674
▁생각하지만	-11.4674
▁어린이	-11.4676
▁행복하	-11.4678
달이	-11.468
▁몰라요	-11.468
▁무작정	-11.4681
▁파충류	-11.4681
▁얘기했잖아	-11.4682
▁창출	-11.4683
▁자기만의	-11.4683
▁이모가	-11.4684
▁다니시	-11.4685
세가	-11.4687
▁클라이밍	-11.4688
▁가깝고	-11.4689
▁유독	-11.4693
▁라멘	-11.4695
▁특별	-11.4699
▁빌려서	-11.4699
▁신발이	-11.4701
▁느낌의	-11.4702
졌을	-11.4702
▁다녀서	-11.4703
▁들수록	-11.4705
썸	-11.4708
틈	-11.4708
▁알기	-11.4709
였습니다	-11.4709
붓	-11.4709
▁찢어	-11.471
엽	-11.4713
▁궁금했	-11.4714
자라는	-11.4715
▁일만	-11.4717
▁괜찮게	-11.4717
▁이북	-11.4718
▁선호하지	-11.472
▁방향이	-11.4722
▁시점	-11.4724
▁거기로	-11.4727
▁의문이	-11.4729
보면은	-11.473
▁매점	-11.4731
▁천안	-11.4733
가지가	-11.4734
▁답변	-11.4736
▁조만간	-11.4736
▁꿈꾸	-11.4736
▁해변	-11.4739
▁들리는	-11.4741
▁8000	-11.4742
▁설날	-11.4746
▁자신감	-11.4746
▁불편	-11.4748
이즈	-11.4748
▁깨끗하고	-11.4749
▁먹이고	-11.4749
브리	-11.4751
▁누구지	-11.4751
▁얘네들	-11.4754
▁손자	-11.4759
▁우정을	-11.476
▁만드	-11.4763
▁전날	-11.4764
▁사극	-11.4765
▁타입	-11.4766
▁직업은	-11.477
▁부러운	-11.4771
▁시장에서	-11.4772
▁이걸로	-11.4772
▁사귈	-11.4777
▁옛날처럼	-11.4778
▁아쉽다	-11.4781
▁없었다	-11.4781
▁아름다운	-11.4783
▁4000	-11.4784
▁도와줄	-11.4785
▁시험이	-11.4786
다며	-11.4786
▁바다에	-11.479
▁버킷리스트	-11.479
▁잠실	-11.479
▁당첨	-11.4791
▁많았었	-11.4793
▁부정적으로	-11.4793
▁미치는	-11.4797
▁크면	-11.4798
▁때려	-11.4801
▁가득	-11.4801
듬	-11.4802
음에도	-11.4802
하도록	-11.4804
▁겪고	-11.4806
▁목이	-11.4809
▁나오잖아요	-11.4809
▁유일하게	-11.4811
해져	-11.4812
▁비교해	-11.4813
경이	-11.4817
▁애정	-11.4818
▁고령화	-11.4818
▁연결이	-11.482
▁물어봐도	-11.4821
▁흥미를	-11.4822
▁아동	-11.4823
▁집들이	-11.4829
▁아이스	-11.483
▁조정	-11.4831
▁벗고	-11.4831
▁나아가	-11.4832
▁그것에	-11.4834
▁따지고	-11.4837
▁생활도	-11.4838
▁치킨을	-11.484
▁불만이	-11.4844
▁호캉스	-11.4845
▁눈도	-11.4845
화된	-11.4846
▁젊은이들	-11.4846
▁불편하고	-11.4849
▁많아진	-11.4849
▁아깝다	-11.485
▁가게를	-11.4853
▁적성에	-11.4853
이기는	-11.4854
▁어색하	-11.4854
딸	-11.4854
▁검은색	-11.4855
▁사무직	-11.486
▁공고	-11.4863
▁깔끔한	-11.4864
▁않니	-11.4864
똑	-11.4866
었었는데	-11.4872
▁되겠다는	-11.4874
▁당했	-11.4875
▁구두	-11.4882
▁터치	-11.4883
▁교육이	-11.4883
▁자격증도	-11.4885
▁웨이팅	-11.4887
▁들어가지	-11.4887
▁결혼식은	-11.4887
▁나이는	-11.4888
▁통계	-11.4889
▁살리	-11.4892
▁태블릿	-11.4894
▁점수가	-11.4895
▁환경에서	-11.4896
▁특성상	-11.4896
▁감각	-11.4898
▁염색	-11.4898
▁진단	-11.4898
편을	-11.49
▁놓치	-11.4903
▁신곡	-11.4904
▁한마디	-11.4905
▁옷이나	-11.4907
▁일이라고	-11.4914
성에	-11.4917
▁다르기	-11.4919
통이	-11.4919
▁광고를	-11.4923
▁배웠던	-11.4926
멸	-11.4927
남매	-11.493
뜻	-11.4931
▁축의금을	-11.4933
촉	-11.4934
▁빙수	-11.4935
▁영양제를	-11.4936
▁특징이	-11.4936
▁가스	-11.4938
▁앱을	-11.494
▁마실	-11.4942
▁물어보니까	-11.4943
▁점심시간	-11.4943
▁삼촌	-11.4944
▁바꿔서	-11.4949
▁선진국	-11.4949
▁싸울	-11.495
▁미치	-11.4954
▁누리	-11.4956
▁말씀이	-11.4959
▁약한	-11.496
인지는	-11.496
▁먹었거든	-11.4961
▁브랜드는	-11.4961
졌으면	-11.4963
▁연말	-11.4965
▁밑으로	-11.4968
▁학업	-11.4969
▁많다는	-11.4969
▁가능할	-11.497
▁정장	-11.4972
▁소리도	-11.4972
▁남자는	-11.4974
▁뉴욕	-11.4977
▁연관	-11.4982
▁책임감이	-11.4987
▁않았다	-11.4987
19	-11.4992
▁구글	-11.4992
▁겨우	-11.4993
▁갔었고	-11.4995
▁강아지들은	-11.4997
▁얼굴에	-11.4998
▁대학교에	-11.4999
▁갔으니까	-11.5
▁되겠어	-11.5001
▁유지가	-11.5003
▁찾아봤는데	-11.5005
▁사귄	-11.5006
▁알아볼	-11.5007
▁언니들	-11.5007
▁운전하는	-11.5009
▁산책도	-11.5011
마리가	-11.5012
펫	-11.5012
▁한복	-11.5012
▁땐가	-11.5013
▁공대	-11.5014
번만	-11.5016
▁연세	-11.502
▁바보	-11.502
▁프로그램도	-11.5027
▁재능	-11.5028
▁터져	-11.5028
▁이야기도	-11.5031
▁단순한	-11.5032
▁쪽에서는	-11.5033
▁아시아	-11.5034
▁구성원	-11.5036
▁드라마에서	-11.5038
린데	-11.5039
천만	-11.504
▁알아보는	-11.504
▁내시경	-11.504
▁연애는	-11.504
▁동감	-11.5049
▁장례	-11.5051
▁가거든	-11.5053
▁전반적으로	-11.5054
▁집안에	-11.5055
▁폐기	-11.5059
▁비율	-11.5062
▁회의	-11.5063
으세요	-11.5064
하셔	-11.5064
▁짐을	-11.5065
▁넣은	-11.5065
뭣	-11.5068
▁받아들여	-11.5069
▁어려워서	-11.5071
▁외할머니	-11.5075
키즈	-11.5076
▁음악에	-11.5084
▁프로그램은	-11.5085
▁과목을	-11.5086
▁대단하다고	-11.5087
▁데나	-11.509
▁막걸리	-11.509
▁세상을	-11.5093
하며	-11.5095
념	-11.5096
버리면	-11.5097
▁말씀드렸	-11.5099
▁돌아왔	-11.5099
▁않았으면	-11.5099
▁종류는	-11.5101
▁진지하게	-11.5104
한다거나	-11.5106
▁못하지만	-11.5107
리면	-11.5107
▁경기장	-11.511
프로는	-11.5113
▁얘기하는데	-11.5114
▁카페에	-11.5116
▁확인해	-11.5117
▁초반에는	-11.5117
▁친환경	-11.5118
▁부작용이	-11.5118
▁저것도	-11.5119
하에	-11.5121
▁좋으	-11.5122
운동	-11.5124
▁노인들	-11.5125
▁물도	-11.5127
▁잘한다	-11.5129
▁일으키	-11.5132
셨나요	-11.5136
▁요기	-11.5139
▁인원이	-11.5139
▁분류	-11.5141
롭게	-11.5142
석이	-11.5143
▁완벽하게	-11.5144
▁쇼핑이	-11.5144
▁열두	-11.5145
▁거에요	-11.5147
▁연차	-11.5148
▁쪼금만	-11.515
▁삼아	-11.515
간다	-11.515
만으로도	-11.5152
▁때로는	-11.5155
▁비하면	-11.5155
▁그랬어요	-11.516
▁인터뷰	-11.5161
실에서	-11.5161
대학교	-11.5161
▁회전	-11.5162
확	-11.5169
▁게임은	-11.5169
▁제거	-11.517
▁더워서	-11.517
시켜서	-11.5171
▁먹었었는데	-11.5172
있어	-11.5172
▁들어가게	-11.5173
돼야	-11.5174
▁이력서	-11.5175
▁대표적인	-11.5176
▁재능이	-11.5176
▁똑똑하	-11.5182
▁일종의	-11.5182
▁느끼기	-11.5183
▁실기	-11.5185
▁됐습니다	-11.5187
▁시작이	-11.5188
▁포함해서	-11.519
▁키웠었	-11.5192
▁말했	-11.5194
▁가치관이	-11.5195
인지도	-11.5195
▁인사를	-11.5196
▁일정이	-11.5196
▁추진	-11.5197
▁고려를	-11.5198
▁싶었거든	-11.5198
▁기다렸	-11.5201
▁프로그램에서	-11.5201
▁조그만	-11.5203
▁오른쪽	-11.5203
▁세종	-11.521
▁딸내미	-11.521
▁친하	-11.5211
교육	-11.5211
▁어르신	-11.5212
시킨다	-11.522
이한테	-11.5221
▁추리	-11.5221
드릴게요	-11.5224
▁돌아가시	-11.5225
▁때쯤	-11.5225
▁이야기하는	-11.5225
쌀	-11.5226
▁날씨도	-11.5229
▁전화가	-11.5231
▁반팔	-11.5232
▁착하	-11.5233
▁쪽으로는	-11.5236
주셨던	-11.5236
▁주변에는	-11.5238
▁답답해	-11.5239
구이	-11.524
▁있었다고	-11.5242
▁웃겨	-11.5243
▁콩나물	-11.5246
▁세금을	-11.5246
▁형님이	-11.5248
▁있습니까	-11.5248
▁논문	-11.525
▁갱년기	-11.5253
▁경력이	-11.5255
▁즐겁고	-11.5256
▁동료들	-11.5257
탱	-11.5261
▁아까운	-11.5261
켓	-11.5261
느니	-11.5261
▁간편	-11.5261
▁상품을	-11.5264
▁멋있다	-11.5264
럼	-11.5267
▁느껴져	-11.5267
▁해줘야	-11.5268
▁생각했거든	-11.5269
▁사람들한테는	-11.527
소를	-11.527
▁의지가	-11.5271
▁해리포터	-11.5275
▁있지만은	-11.5275
▁태어나서	-11.5275
▁아세요	-11.5276
▁염려	-11.5277
▁오거나	-11.5278
▁문제지	-11.5279
▁여고	-11.5279
스터	-11.5282
▁중고로	-11.5282
▁없다라고	-11.5288
▁원대	-11.5289
▁재밌더라고요	-11.529
▁당한	-11.5292
▁않다는	-11.5293
자매	-11.5295
▁아디다스	-11.5297
▁방안	-11.5297
▁생기니까	-11.5299
▁악기를	-11.5299
▁포기하고	-11.5301
색을	-11.5304
▁규제	-11.5306
▁여쭤보고	-11.5308
▁입어야	-11.5313
▁않으	-11.5315
▁외식을	-11.5315
▁표시	-11.5316
▁나가면은	-11.5317
▁보거든요	-11.5318
▁남편이랑	-11.5321
▁보더라도	-11.5325
▁스마트폰으로	-11.5325
▁아이엔에프피	-11.5325
티비	-11.5326
졸	-11.5328
박스	-11.5328
▁모니터	-11.5333
▁인건비	-11.5333
▁아메리카노	-11.5333
▁잠도	-11.5333
▁서운하	-11.5336
▁오로지	-11.5341
▁움직여	-11.5343
▁말로는	-11.5343
▁고통을	-11.5345
▁미루	-11.5346
▁태양	-11.5346
식품	-11.5347
▁맥도날드	-11.5347
▁돌아오는	-11.5349
▁만족하고	-11.5349
▁미친	-11.535
▁공동	-11.5352
주기	-11.5352
▁좋습니다	-11.5354
▁의향이	-11.5355
▁자르	-11.5355
▁생활하고	-11.5357
▁정하는	-11.5359
▁카페가	-11.536
▁고양이나	-11.5365
▁친했던	-11.5365
▁이론	-11.5366
시나	-11.5368
▁뛰어나	-11.5369
▁동성	-11.537
▁쿠팡에서	-11.5371
▁가족이랑	-11.5372
▁비싸니까	-11.5372
▁필요도	-11.5373
▁방송에	-11.5374
트로	-11.5374
▁공부는	-11.5376
▁이뤄	-11.5378
▁왔었는데	-11.5379
▁지각	-11.5379
▁애용	-11.5385
▁운영을	-11.5385
▁사야지	-11.5388
▁비밀	-11.5391
▁커튼	-11.5393
▁정시	-11.5393
▁고려해	-11.5394
▁밤새	-11.5397
느라	-11.5397
웅	-11.5397
▁즐거워	-11.5398
▁평범한	-11.5398
▁너무나도	-11.5399
▁종목이	-11.5399
▁일인데	-11.5399
▁찾아다니	-11.54
▁생기기	-11.5405
▁신나	-11.5406
▁체질	-11.5407
▁예전처럼	-11.5408
▁생활비	-11.541
▁유학	-11.5411
▁환자들	-11.5412
융	-11.5412
▁막혀	-11.5412
▁얘긴데	-11.5414
▁처리를	-11.5417
▁쓰시	-11.5424
▁강력	-11.5426
▁계시는데	-11.5429
쇠	-11.5435
▁입양을	-11.5435
▁경상도	-11.5435
▁좋아했거든	-11.5436
▁많았어요	-11.5436
▁궁금한데	-11.5438
그래	-11.5439
▁신기하고	-11.5439
▁입력	-11.5439
솜	-11.5442
리얼	-11.5445
▁점차	-11.5445
▁하얀색	-11.5446
▁짜서	-11.5447
▁제사가	-11.5448
▁시민	-11.5448
▁삼계탕	-11.5449
▁진료	-11.5451
▁요리사	-11.5452
▁제발	-11.5455
▁느껴졌	-11.5459
었죠	-11.546
▁공부가	-11.5461
▁생각엔	-11.5461
명만	-11.5462
▁됐는지	-11.5462
▁푸는	-11.5464
▁식탁	-11.5465
▁폭이	-11.5467
▁호박	-11.5467
▁연령	-11.5468
▁문제점이	-11.5469
▁맛있더라	-11.5469
▁삼성전자	-11.5471
▁출신	-11.5473
▁정작	-11.5474
▁재택근무	-11.5477
▁경조사	-11.5479
▁퇴근하고	-11.5479
▁올리브영	-11.5479
되게	-11.548
는다는	-11.5483
▁맞는다고	-11.5483
▁속상하	-11.5484
▁차리	-11.5487
▁학생회	-11.5489
▁성취감	-11.549
▁단체로	-11.5493
▁한국사	-11.5493
▁영화들	-11.5495
장은	-11.5497
▁무섭다	-11.5498
▁스케이트	-11.5501
▁코스트코	-11.5501
▁외향적인	-11.5503
▁전기차	-11.5505
▁진돗개	-11.5508
▁통영	-11.5509
▁가수를	-11.5512
▁길고양이	-11.5512
컨	-11.5515
▁지불	-11.5515
▁취득	-11.5517
▁재밌었는데	-11.5517
▁세게	-11.552
▁여행에	-11.5522
인분	-11.5523
▁아쉬움이	-11.5524
▁냄새도	-11.5525
▁다이어트는	-11.5527
▁너희들은	-11.5529
▁부딪히	-11.553
▁책은	-11.5533
▁찾아볼	-11.5534
▁부여	-11.554
▁태도	-11.5541
▁맛있을	-11.5542
주시는	-11.5544
▁올라오고	-11.5546
▁가수는	-11.5548
▁결심	-11.5548
앗	-11.5552
팥	-11.5552
시더라고요	-11.5553
▁웃으면서	-11.5554
▁버튼	-11.5554
▁수출	-11.5555
▁부르면	-11.5555
▁현장에서	-11.5558
▁올라간	-11.5559
▁그만뒀	-11.556
▁본인들이	-11.5563
▁들었다	-11.5566
▁대화도	-11.5567
▁모임을	-11.5567
▁리더	-11.5573
▁활동하는	-11.5573
▁아쉬웠	-11.5574
▁많았거든	-11.5574
지더라고요	-11.5575
▁아이브	-11.5581
▁감상	-11.5582
▁매니저	-11.5582
▁오래되	-11.5582
▁충분하	-11.5582
▁마당	-11.5583
했다면	-11.5583
▁친해졌	-11.5587
▁결론은	-11.5587
▁아니었던	-11.5589
▁수영도	-11.5589
▁적정	-11.5589
▁딸을	-11.559
▁연애할	-11.5591
▁보였	-11.5593
▁키워서	-11.5595
▁무언가	-11.5596
▁느껴서	-11.5596
▁얘긴	-11.5597
▁찾아가서	-11.5597
▁동의하는	-11.5598
▁그러긴	-11.5598
▁아들도	-11.56
▁웃음	-11.5603
▁건강검진	-11.5604
▁지켜야	-11.5604
▁요리는	-11.5612
▁지인이	-11.5613
▁무지	-11.5614
▁주식이나	-11.5614
▁생신	-11.5614
▁단순하게	-11.5614
▁증거	-11.5615
▁매트	-11.5616
▁프리미엄	-11.5619
공학과	-11.562
▁않거든요	-11.5623
▁멀리서	-11.563
▁대여	-11.5633
짚	-11.5634
▁틀려	-11.5635
▁생각나는데	-11.5637
▁생활할	-11.5638
동을	-11.5639
▁성당	-11.564
심을	-11.5641
▁자동	-11.5642
▁어려움	-11.5643
▁모으	-11.5643
▁필요한데	-11.5644
▁친구들이나	-11.5644
▁체크를	-11.5645
▁죽기	-11.5645
▁리조트	-11.5649
▁말했잖아	-11.5654
▁농구를	-11.5657
▁주택에	-11.5657
▁덩치	-11.5661
▁위기	-11.5661
▁감안	-11.5662
복을	-11.5663
▁실행	-11.5663
▁기독교	-11.5664
▁도깨비	-11.5664
▁원인	-11.5669
▁대면으로	-11.5671
▁귀에	-11.5675
▁나오면서	-11.5677
▁열고	-11.5678
▁네네	-11.568
▁곤란	-11.5681
▁그담에	-11.5681
겠습니까	-11.5683
▁활용할	-11.5683
▁배상을	-11.569
▁손목	-11.5691
▁고양이랑	-11.5693
▁알기로	-11.5693
▁몰랐네	-11.5693
▁아버지는	-11.5693
룡	-11.5694
▁헬스장을	-11.5698
해질	-11.57
▁어쨌거나	-11.5701
▁재개발	-11.5701
▁기업들	-11.5703
▁밥은	-11.5703
▁증상이	-11.5706
▁대학교에서	-11.5707
▁일들	-11.5707
▁용인	-11.5709
으려	-11.5709
햄	-11.5709
▁잘생긴	-11.5709
▁언제쯤	-11.5709
▁평일에	-11.5711
▁좋겠지	-11.5711
▁내년에는	-11.5718
▁좋아하더라고	-11.5719
▁간호	-11.572
▁컴퓨터를	-11.5724
팬	-11.5725
▁아가씨	-11.5725
▁들었지	-11.5725
▁동물병원	-11.5725
▁확인하고	-11.5727
▁복수	-11.5728
▁스트레스도	-11.5729
▁점수를	-11.5731
▁살려서	-11.5731
▁관련돼서	-11.5734
▁우동	-11.5735
▁이용하면	-11.5737
닉	-11.5739
▁같으면은	-11.5742
12	-11.5744
▁동안은	-11.5746
▁해결해	-11.5747
▁변하는	-11.5748
▁맞은	-11.5749
▁몇몇	-11.575
▁이상을	-11.5752
튀	-11.5753
▁붙는	-11.5757
▁없었잖아	-11.5758
▁떠들	-11.576
▁세계에서	-11.5761
▁뭐냐면은	-11.5761
이었잖아	-11.5762
▁편하더라고	-11.5764
▁하시는지	-11.5765
▁취미는	-11.5766
진다는	-11.5766
상에서	-11.5767
▁급한	-11.5768
캠	-11.5769
숭	-11.5769
▁의미를	-11.5775
▁인생에서	-11.5777
▁가평	-11.5778
▁나가게	-11.5782
▁있냐고	-11.5783
년간	-11.579
▁보여주는	-11.5791
▁맞벌이	-11.5792
적이라고	-11.5793
▁권유	-11.5794
▁헤어졌	-11.5798
댁	-11.5799
▁먹기가	-11.5801
▁시간만	-11.5801
▁그것보다	-11.5801
▁보더라고	-11.5801
▁데다가	-11.5809
▁기분도	-11.581
▁평소에는	-11.5811
▁정책을	-11.5815
▁마이크	-11.5816
▁물건들	-11.5817
▁세탁	-11.5818
▁어머니는	-11.582
▁고추	-11.5822
▁싫은데	-11.5822
▁리메이크	-11.5822
▁옵션	-11.5822
▁바다도	-11.5823
▁입장을	-11.5825
▁돌아가시고	-11.5825
▁음식들을	-11.5825
▁집단	-11.5826
명도	-11.5828
▁전학	-11.5829
▁호기심	-11.583
▁에스에프	-11.583
▁결과적으로	-11.583
어지고	-11.5832
▁고양이들은	-11.5832
▁계셔	-11.5833
▁성격의	-11.5835
벅	-11.5837
▁편의점에서	-11.5837
▁스포츠는	-11.5842
▁점프	-11.5843
▁감사하	-11.5844
▁그랬었어	-11.5845
▁환자가	-11.5846
▁친구라고	-11.5846
더래	-11.5847
▁도구	-11.5848
▁즐겁	-11.5849
▁원은	-11.5851
▁소유	-11.5852
▁못하는데	-11.5852
▁형식으로	-11.5852
▁부담스러워	-11.5853
졌던	-11.5855
▁분위기도	-11.5855
▁게임에	-11.5857
▁아이한테	-11.5858
▁안정적이	-11.5859
▁스스로가	-11.5859
▁예체능	-11.586
▁펀드	-11.5861
▁22	-11.5862
▁퀄리티	-11.5866
▁군대에	-11.5872
번이나	-11.5872
▁올려서	-11.5872
▁남동생	-11.5873
▁수입이	-11.5874
▁적응이	-11.5875
▁가르치	-11.5876
▁어려서	-11.5876
▁양을	-11.5878
▁자유를	-11.5878
▁생활은	-11.5887
▁왕복	-11.5889
▁땅이	-11.5891
▁통과	-11.5892
▁듣기로는	-11.5893
▁장단점	-11.5894
담을	-11.5894
▁사진이	-11.5895
▁경우들이	-11.5897
▁좋아하니	-11.5898
▁귀가	-11.59
▁인증	-11.59
▁특이	-11.59
▁없구나	-11.5901
▁패스	-11.5903
▁정확	-11.5905
▁실내에서	-11.5905
톰	-11.5906
▁충족	-11.5906
▁가치를	-11.591
▁너희들이	-11.591
▁내려가서	-11.591
▁오전에	-11.591
▁신기했던	-11.5912
▁바쁘고	-11.5913
하니깐	-11.5916
▁운행	-11.5917
▁등장	-11.592
▁연령대	-11.5921
▁멈추	-11.5922
▁구하기	-11.5922
▁주관	-11.5922
▁아침마다	-11.5923
구리	-11.5923
▁들여서	-11.5924
▁없어져	-11.5925
▁있었으니까	-11.5926
즙	-11.5929
▁모임이	-11.5929
흔	-11.5929
▁쓰잖아	-11.593
▁몸은	-11.593
▁받아들이는	-11.5932
▁현실이	-11.5932
▁같단	-11.5933
▁요양원	-11.5933
▁임금	-11.5934
리면서	-11.5934
▁잔잔	-11.5935
▁넘어가면	-11.5936
▁부산은	-11.5936
▁영화관에	-11.5936
▁나지만	-11.5937
0	-11.5937
▁있었는지	-11.5937
▁여가	-11.5939
▁얘네들이	-11.5941
국을	-11.5942
▁해준	-11.5943
▁접종	-11.5943
멈	-11.5944
▁깨끗한	-11.5945
▁몸매	-11.595
하든	-11.5951
▁해보면	-11.5951
▁괜찮긴	-11.5953
▁나중	-11.5954
▁짓을	-11.5957
▁쇼핑하는	-11.5958
▁대접	-11.5959
▁이용한	-11.5962
▁자세하게	-11.5963
▁폐지를	-11.5963
▁아이들의	-11.5963
▁주변에도	-11.5967
▁포켓몬	-11.5968
▁빅뱅	-11.5968
▁정착	-11.5969
▁느리	-11.5971
▁국민들	-11.5972
▁같애	-11.5973
▁필요로	-11.5975
▁메뉴를	-11.5975
꺼	-11.5975
▁대체로	-11.5976
뭉	-11.5978
▁너네는	-11.598
▁달라졌	-11.5981
성으로	-11.5982
▁대고	-11.5983
뽕	-11.5983
스코	-11.5984
▁차단	-11.5985
▁치안	-11.5987
▁여보는	-11.5987
▁내려가는	-11.5987
▁쪼끄만	-11.5988
은행	-11.5989
▁들기	-11.599
▁커뮤니티	-11.5991
▁향신료	-11.5991
보려고	-11.5991
▁자본	-11.5994
▁외가	-11.5995
하기에	-11.5995
▁외국어	-11.5996
응	-11.5996
▁이해는	-11.5996
▁소수	-11.5997
▁가족들끼리	-11.5997
▁소소하게	-11.5999
▁비율이	-11.5999
▁압박	-11.6001
▁따야	-11.6003
였기	-11.6003
▁화려하	-11.6005
▁느껴지고	-11.6006
섰	-11.6006
값을	-11.6007
▁이득이	-11.6008
▁어떡하	-11.6009
▁들어보	-11.6009
▁식당을	-11.6009
▁부정	-11.6009
▁난다고	-11.601
▁넓고	-11.601
▁사정	-11.6012
▁완벽	-11.6017
▁걸리면	-11.6017
실에	-11.6021
▁줄여야	-11.6026
▁아이돌은	-11.6028
▁넘어갈	-11.6032
▁다니잖아	-11.6032
▁든다고	-11.6034
▁움직일	-11.6037
해수욕장	-11.6037
▁장사를	-11.604
▁육수	-11.604
▁죽음을	-11.6044
언니	-11.6044
▁스타벅스	-11.6045
▁기사가	-11.6047
▁멤버들	-11.6049
▁지내다	-11.6049
▁체감	-11.6049
▁정하고	-11.6052
▁지치	-11.6053
▁엉덩이	-11.6053
▁하루하루	-11.6053
▁다녔어	-11.6055
▁쳐다보	-11.6055
▁날아	-11.6056
▁용어	-11.6057
▁영상으로	-11.6057
▁수학을	-11.6058
▁지옥	-11.6063
▁잘하지	-11.6064
▁마치고	-11.6066
소가	-11.6066
▁여보가	-11.6068
▁안전한	-11.6068
햇	-11.6068
▁교도소	-11.6069
▁팀장님	-11.6073
▁가깝게	-11.6074
▁넘겨	-11.6074
▁바르고	-11.6075
▁위치가	-11.6076
▁노출	-11.6077
버려	-11.6077
▁검정색	-11.608
▁깔고	-11.6082
▁반갑	-11.6083
▁길로	-11.6083
▁바빠서	-11.6083
▁했고요	-11.6084
▁중성화	-11.6084
▁연속	-11.6085
▁무언가를	-11.6085
▁따는	-11.6086
▁어디에서	-11.6087
▁집착	-11.6089
▁빨간색	-11.609
▁어쩌다가	-11.6094
▁편의	-11.6095
라기보다	-11.6097
▁옷들	-11.6098
▁중요할	-11.6098
▁않고요	-11.6098
▁연상	-11.6099
▁활동적인	-11.6099
▁월급이	-11.61
탓	-11.61
▁무용	-11.6101
▁이쁘다	-11.6102
▁모기	-11.6102
맛이	-11.6102
▁이따	-11.6103
▁재생	-11.6108
▁이길	-11.6109
▁없단	-11.6109
큰	-11.611
▁싶단	-11.6111
▁모르겠더라고	-11.6114
▁티켓팅	-11.6116
▁드라이브	-11.6116
▁미용실	-11.6118
달을	-11.6119
▁장소를	-11.612
▁말했지만	-11.612
▁걔들	-11.6122
다기보다	-11.6123
샵	-11.6123
▁살면은	-11.6124
▁남는데	-11.6124
▁둘러보	-11.6127
▁타니까	-11.6129
▁좋아하는데요	-11.613
▁기본으로	-11.6131
▁났을	-11.6139
▁입맛	-11.6141
▁볶아	-11.6143
우스	-11.6144
▁일해	-11.6144
▁손실	-11.6147
▁신기	-11.6147
▁태풍	-11.6148
▁잘못됐	-11.615
▁돌아가고	-11.6151
▁몰리	-11.6151
▁과가	-11.6154
▁시세	-11.6155
스라는	-11.6156
▁친해	-11.6156
▁쓴다고	-11.6159
▁말씀하셨는데	-11.6159
되니까	-11.616
▁꾸미고	-11.6162
탭	-11.6162
▁찌는	-11.6163
▁지식을	-11.6163
▁연기도	-11.6164
▁감성이	-11.6165
▁겁나	-11.6165
▁이상의	-11.6169
▁방어	-11.6169
▁넣어야	-11.6172
▁조율	-11.6174
이었지	-11.6174
▁두세	-11.6174
하신다고	-11.6176
▁식구들이	-11.6177
끼를	-11.6177
있고	-11.6177
캣	-11.6178
▁게다가	-11.6179
했었고	-11.6179
▁왔으니까	-11.618
▁통학	-11.6181
롤	-11.6184
▁23	-11.6187
▁활용해서	-11.6187
▁힘들어하는	-11.6189
없는	-11.619
▁나누는	-11.6193
▁춤도	-11.6199
에이치	-11.6204
▁있네요	-11.6205
▁장거리	-11.6209
조를	-11.6213
▁저렴하고	-11.6214
▁달라질	-11.6215
님들	-11.6215
▁디자인을	-11.6215
▁공식	-11.6221
▁오더라고	-11.6221
▁돌봐	-11.6221
▁버스나	-11.6229
▁로제	-11.6232
▁좋았지	-11.6232
▁군산	-11.6236
렇	-11.6238
▁일본의	-11.624
▁가정이	-11.624
다던가	-11.6241
▁문학	-11.6242
▁계절에	-11.6244
▁없더라	-11.6244
▁제약이	-11.6247
보이	-11.6247
▁아티스트	-11.6249
▁나가니까	-11.6249
▁대박	-11.625
▁나오긴	-11.625
▁이루고	-11.6254
▁따뜻하	-11.6257
혹	-11.6257
▁쟤는	-11.626
교대	-11.6264
▁마르	-11.6265
▁바이올린	-11.6265
▁신기하게	-11.6266
조림	-11.6269
▁요청	-11.627
▁나왔다고	-11.6272
▁알아듣	-11.6274
▁성우	-11.6274
▁김포	-11.6275
▁결말	-11.6275
▁불가능	-11.6275
▁손녀	-11.6277
▁규모	-11.6282
X	-11.6284
으셔	-11.6286
닌	-11.6286
▁방탄	-11.6287
▁약물	-11.6288
툼	-11.6289
였으니까	-11.6289
▁식당이	-11.6289
▁간이	-11.6289
▁그러더라	-11.6291
▁에스엠	-11.6291
▁후쿠오카	-11.6297
▁하네요	-11.6298
▁증가	-11.6302
▁당사자	-11.6305
▁백화점에서	-11.6306
▁이것은	-11.6306
▁먹겠	-11.6306
▁자식들이	-11.6307
▁챙겨서	-11.6312
됐다	-11.6314
▁전시회를	-11.6314
▁애플을	-11.6318
▁땅을	-11.632
잎	-11.6321
▁타는데	-11.6321
▁도심	-11.6328
▁시즌이	-11.6329
▁직무	-11.6334
▁계실	-11.6334
▁예측	-11.6335
▁비빔밥	-11.6337
▁인류	-11.6339
▁절차	-11.6341
한다든지	-11.6343
▁조성	-11.6345
▁샌드위치	-11.6345
▁가게가	-11.6346
▁냉장고에	-11.635
▁세월	-11.6351
▁모병제	-11.6353
조가	-11.6353
▁올릴	-11.6355
▁스토리가	-11.6356
▁먹어본	-11.6357
▁잘한다고	-11.636
▁닭발	-11.636
▁광안리	-11.6361
▁따라가는	-11.6363
까라는	-11.6363
▁화상	-11.6363
▁관계에	-11.6364
▁인터넷이나	-11.6364
▁부인	-11.6365
감도	-11.6367
나가는	-11.6368
▁있겠죠	-11.637
낭	-11.638
▁다녀온	-11.6382
▁들었었는데	-11.6382
▁편리하게	-11.6382
▁깊었	-11.6382
▁바꾼	-11.6382
▁무섭고	-11.6385
▁금전적인	-11.6385
▁아무렇지	-11.6385
▁놀이공원	-11.6385
센티	-11.639
▁장소에	-11.6391
▁보호자	-11.6393
▁에이아이는	-11.6393
▁브라질	-11.6394
▁가신	-11.6395
▁정식	-11.6396
▁누르	-11.6396
▁나와요	-11.64
▁연락하고	-11.6406
▁불편하지	-11.6406
▁평화	-11.6407
▁사람한테는	-11.6407
▁복용	-11.6411
▁가셨	-11.6411
▁방영	-11.6412
▁헤드	-11.6415
▁분양을	-11.6415
▁들어갔을	-11.6416
▁때문	-11.6416
▁걸리지	-11.6418
▁우리나라에서는	-11.642
▁불안해	-11.6425
▁맞지만	-11.6427
▁물류	-11.6428
끝	-11.643
▁있듯이	-11.6434
▁비비	-11.6436
▁정서적으로	-11.6438
▁어두운	-11.6442
▁경매	-11.6442
▁갈등이	-11.6443
▁없어가지고	-11.6447
▁기반	-11.6448
▁형제들	-11.6449
▁관점	-11.6449
▁해킹	-11.6449
▁싸움이	-11.6456
▁맞았던	-11.6459
▁뮤비	-11.646
뜰	-11.6464
▁모바일	-11.6466
▁들어갔다	-11.6466
▁누구는	-11.6467
▁나거든	-11.6469
▁저녁에는	-11.647
▁결혼해	-11.6471
▁성공한	-11.6472
▁이랬던	-11.6474
▁선택이	-11.6475
으시는	-11.6479
▁음식으로	-11.6479
▁정확하	-11.648
▁싶으신	-11.6481
▁신서유기	-11.6482
궈	-11.6482
▁대세	-11.6483
▁볼래	-11.6484
▁혹시라도	-11.649
▁물어봤는데	-11.649
▁스파게티	-11.649
▁그러던데	-11.6491
▁많았지	-11.6493
▁씨도	-11.6495
▁하셨잖아요	-11.6496
▁보기엔	-11.6497
▁안정적으로	-11.6498
▁잘하면	-11.6501
▁진심	-11.6501
▁넓게	-11.6502
신다고	-11.6504
11	-11.6504
▁문제들이	-11.6505
하던데	-11.6506
▁걸그룹	-11.6506
▁택시가	-11.6507
▁선뜻	-11.6508
▁돈에	-11.6514
▁건강식품	-11.6517
▁첫날	-11.6517
▁기억하고	-11.6518
▁회사의	-11.6519
▁사람이라고	-11.6519
▁배우님	-11.652
학번	-11.652
▁샤부샤부	-11.6523
▁살아남	-11.6523
▁호수	-11.6523
▁지키고	-11.6524
▁타입이	-11.6528
▁전원	-11.6529
▁가져오	-11.6532
▁아이폰을	-11.6533
▁맞이	-11.6533
▁여유롭게	-11.6535
▁감소	-11.6536
텐데	-11.6537
▁일정을	-11.6538
▁끌려	-11.6538
▁막연하게	-11.6539
▁관찰	-11.6541
▁그때마다	-11.6542
비는	-11.6543
▁입구	-11.6546
▁고양	-11.6546
▁스튜디오	-11.6547
겠더라고요	-11.6547
▁줄이는	-11.6549
▁좋다라고	-11.655
▁느껴질	-11.655
▁주연	-11.655
드리면	-11.6551
▁지켜보	-11.6559
▁다낭	-11.656
▁사인	-11.6564
▁알아요	-11.6565
▁업종	-11.6568
▁저러	-11.6569
▁했어야	-11.6569
▁니트	-11.657
▁직원이	-11.6571
▁배출	-11.6572
▁근육을	-11.6572
▁대안	-11.6572
▁대구에서	-11.6574
었구나	-11.6575
▁맞추기	-11.6575
▁오빠한테	-11.6577
▁보이면	-11.6577
▁조작	-11.6579
▁타자	-11.658
▁장점이라고	-11.6582
▁창작	-11.6582
분만	-11.6582
떼	-11.6583
▁데서도	-11.6584
▁혜택이	-11.6587
▁장점도	-11.6587
▁불안하	-11.6592
▁돌리는	-11.6595
▁몰티즈	-11.6596
▁입장이야	-11.66
셔야	-11.6603
▁여행의	-11.6604
▁법으로	-11.6604
▁느꼈고	-11.6604
▁커리어	-11.6605
냐에	-11.6607
▁우산	-11.6607
▁예능은	-11.6609
분들은	-11.6609
▁상품권	-11.661
첩	-11.6613
▁한계	-11.6613
▁먹었어요	-11.6613
▁유망	-11.6615
솥	-11.6621
▁마을버스	-11.6622
▁조개	-11.6622
▁집중해서	-11.6627
▁익숙해지	-11.6634
▁있었잖아요	-11.6639
▁나더라고요	-11.664
▁대학생이	-11.6641
▁아닌가라는	-11.6641
▁고추장	-11.6642
▁찍으면	-11.6644
▁소속사	-11.6645
▁제한을	-11.6645
▁소문	-11.6646
▁꺼려	-11.6648
▁테고	-11.6653
▁괜찮네	-11.6653
▁티브이는	-11.6655
문화	-11.666
▁이야기해	-11.6663
▁우리에게	-11.6665
▁지하철도	-11.6666
▁월급을	-11.667
▁육회	-11.6672
▁있으니	-11.6672
▁젤리	-11.6675
▁해외를	-11.6679
▁연명	-11.668
▁6000	-11.6682
꾼	-11.6685
▁메리트가	-11.6685
▁축가	-11.6686
▁살아가면서	-11.6686
▁소녀시대	-11.6687
▁공짜로	-11.6688
▁바뀌어서	-11.6689
▁놀랐던	-11.6689
▁재작년	-11.6691
긁	-11.6691
▁사람이야	-11.6691
▁몇십	-11.6695
▁자신감이	-11.6695
▁세븐틴	-11.6695
▁몽골	-11.6696
정거장	-11.6696
야말로	-11.6696
▁와이프가	-11.6698
▁사회생활을	-11.6703
식당	-11.6706
멍	-11.6708
▁농담	-11.6709
▁티셔츠	-11.6712
▁멀쩡	-11.6712
▁기간에	-11.6717
어지는	-11.6717
▁서점	-11.6719
▁바라보	-11.6721
▁당해	-11.6723
▁동반	-11.6727
▁생기면은	-11.6727
▁없다면	-11.6729
▁트라우마	-11.6729
▁확인할	-11.6732
▁코인은	-11.6733
▁놔두고	-11.6733
원까지	-11.6734
▁다리를	-11.6735
망이	-11.6736
▁있으시면	-11.6737
▁더더욱	-11.6737
▁파이	-11.6737
▁더욱더	-11.6738
▁도박	-11.6738
▁나쁘다고	-11.674
▁그렇더라고요	-11.6741
▁줄어들고	-11.6742
▁선생님이랑	-11.6744
▁말인	-11.6745
▁없어질	-11.6745
▁나쁘다	-11.6745
역으로	-11.6745
▁서로서로	-11.6746
마디	-11.6746
▁지적	-11.6749
▁대개	-11.6749
▁금지	-11.675
▁과제를	-11.675
▁대외	-11.6752
▁멀지	-11.6752
▁괴롭	-11.6753
▁가기는	-11.6754
군데를	-11.6754
▁넘어갔	-11.6755
▁겹치	-11.6755
값도	-11.6756
거지	-11.6756
▁공연이	-11.6756
▁유튜버들	-11.6758
▁깨지	-11.6758
으실	-11.676
▁유형이	-11.6761
▁소소한	-11.6762
▁팝콘	-11.6762
▁버릇	-11.6762
▁경로	-11.6763
▁홈트	-11.6764
▁산다는	-11.6766
▁동물들을	-11.6766
▁자동으로	-11.6766
▁매장에	-11.6768
▁고춧가루	-11.677
▁지역으로	-11.6775
▁노출이	-11.6777
▁놀기	-11.6779
▁있었단	-11.6781
버리고	-11.6781
▁고민해	-11.6782
▁은행에	-11.6783
▁공부만	-11.6784
▁사위	-11.6786
▁지역은	-11.6786
▁싶지는	-11.6786
▁롯데월드	-11.6787
▁놀란	-11.6787
▁보라	-11.6789
▁불편했	-11.6792
▁줄일	-11.6795
▁성과	-11.6796
▁음식이나	-11.6796
▁못했고	-11.6799
▁오버	-11.6799
▁고혈압	-11.6804
▁액티비티	-11.6804
▁불어	-11.6804
▁세대는	-11.6805
▁엠비티아이에	-11.6807
▁넘치	-11.6808
▁발생할	-11.681
▁닭가슴살	-11.6812
▁순천	-11.6813
▁사기업	-11.6815
▁사전	-11.6815
▁입지	-11.6816
▁여행하는	-11.6817
못	-11.6817
▁메이커	-11.6821
▁사장	-11.6823
▁계산을	-11.6825
▁자원	-11.6826
▁본다면	-11.6827
할수록	-11.683
▁관련이	-11.6831
▁투표	-11.6832
▁말야	-11.6836
▁기간을	-11.6838
▁따뜻하게	-11.6839
한다라는	-11.6841
▁형태로	-11.6842
▁가봤는데	-11.6846
▁친군데	-11.6848
▁노력해	-11.6849
쿨	-11.685
▁사자	-11.6853
▁웹툰을	-11.6854
랭	-11.6854
▁그립	-11.6858
▁승무원	-11.6863
▁한국의	-11.6863
▁수단이	-11.6866
▁선수는	-11.6867
주면서	-11.6869
▁임용	-11.687
꽃	-11.687
▁귀엽다	-11.6872
▁비싸다고	-11.6874
▁신기했	-11.6874
▁기존	-11.6876
▁그분도	-11.6876
다운	-11.6876
▁인한	-11.6878
▁느껴져서	-11.6879
▁과목은	-11.688
▁선생님의	-11.6882
버려서	-11.6886
▁단위로	-11.6887
▁파도	-11.6887
▁학부모	-11.6889
▁주워	-11.6889
▁두려움	-11.6895
▁콤플렉스	-11.6897
▁뿌듯하	-11.6897
▁반에서	-11.6899
킬	-11.69
신가요	-11.69
비치	-11.6901
▁튀어	-11.6906
▁없겠지만	-11.691
▁고마운	-11.6913
▁간호학과	-11.6914
▁모양이	-11.6917
▁우와	-11.6917
▁제품들	-11.6921
▁스키를	-11.6921
▁유지하고	-11.6922
▁뱃살	-11.6923
▁야식	-11.6925
했냐	-11.6926
하자마자	-11.6927
▁치러	-11.6928
▁문제야	-11.6928
▁캠핑을	-11.6928
적일	-11.693
▁상황인	-11.693
▁활동도	-11.6933
▁먹든	-11.6934
▁가겠다	-11.6934
▁배송이	-11.6935
▁치과	-11.6937
▁어항	-11.6939
▁설거지를	-11.6942
됨	-11.6947
▁스터디	-11.6948
▁기념일	-11.6948
▁않겠나	-11.6948
▁제사는	-11.695
▁자극적이	-11.6951
▁건강해지	-11.6951
봉지	-11.6951
▁외워	-11.6951
하냐면	-11.6952
▁혼나	-11.6953
▁가야겠다	-11.6954
▁있지마는	-11.6955
▁에어컨을	-11.6955
었잖아요	-11.6956
해주고	-11.6958
▁꽃을	-11.6958
▁요가를	-11.6958
▁어려운데	-11.6959
▁아이돌들이	-11.6959
▁트러블이	-11.6963
▁알바생	-11.6963
▁정부가	-11.6963
▁돌보	-11.6965
▁커피숍	-11.6965
▁반은	-11.6967
▁투자할	-11.6967
▁연구를	-11.6968
▁생활에서	-11.6968
▁거기에다가	-11.6969
▁쓰이는	-11.6971
▁움직이고	-11.6972
▁됐었는데	-11.6973
▁비교적	-11.6973
갑니다	-11.6974
▁영화들이	-11.6977
▁불고기	-11.6977
▁대전에서	-11.6979
▁방향을	-11.6981
▁셋이서	-11.6982
▁철학	-11.6982
▁상호	-11.6985
▁데려왔	-11.6987
▁부모님께서	-11.6988
▁깔끔하고	-11.6988
▁줄넘기	-11.699
▁좋아하면	-11.6991
▁가라고	-11.6998
▁잊어버리	-11.6999
▁이왕	-11.6999
▁동네가	-11.6999
▁장모님	-11.6999
▁불안한	-11.6999
▁비싸더라고	-11.7001
▁방치	-11.7002
▁참여를	-11.7002
▁수시로	-11.7002
▁이번엔	-11.7007
브라	-11.7008
▁사용하지	-11.7008
▁새끼를	-11.7009
▁꽃이	-11.7009
▁찾아가는	-11.701
▁예쁘다	-11.7012
▁감동을	-11.7017
▁친구나	-11.7019
▁싫어해서	-11.702
▁휴양	-11.7022
▁시도해	-11.7022
▁있었구나	-11.7024
▁선배님	-11.7024
▁점점점	-11.7025
▁축하해	-11.7025
▁핸드폰에	-11.7026
▁없죠	-11.7028
성은	-11.7029
▁전망	-11.7031
▁활용하는	-11.7032
▁영환데	-11.7033
▁26	-11.7035
땅	-11.7038
님도	-11.704
▁고치	-11.7043
▁부러웠	-11.7043
▁체험을	-11.7044
▁원하지	-11.705
▁쇼핑은	-11.7051
▁동물은	-11.7051
▁생겼다	-11.7052
▁올라갔다	-11.7056
▁오전	-11.7057
▁불쌍하	-11.7059
▁레벨	-11.7059
▁검색해서	-11.7067
▁편도	-11.7071
▁입장에서도	-11.7074
▁썼어	-11.7075
▁개그맨	-11.7076
볼게	-11.7076
▁준비하면서	-11.7077
▁공부에	-11.7077
▁표현하는	-11.708
주신	-11.708
▁궁금하네요	-11.7081
▁방송이	-11.7081
▁그거보다	-11.7082
▁준비해서	-11.7082
▁해봐야	-11.7083
▁답답한	-11.7084
겠다라고	-11.7085
▁놀이터	-11.7085
았을	-11.7086
▁오후에	-11.7087
▁단식	-11.7087
▁가족들하고	-11.7087
▁것만으로도	-11.7088
▁벽지	-11.7089
▁넘어지	-11.7089
▁남자를	-11.7089
▁알았어요	-11.709
▁색다른	-11.7093
▁확실하	-11.7095
▁따서	-11.7099
▁빵이	-11.71
활동	-11.7101
▁만족감	-11.7103
▁태우	-11.7103
▁예전엔	-11.7103
▁키워보고	-11.7104
▁할인을	-11.7104
▁흘리	-11.7104
▁청소기를	-11.7106
▁내려오는	-11.7108
여가지고	-11.711
▁홈플러스	-11.711
▁그러냐	-11.7111
▁먹어보고	-11.7113
푸드	-11.7113
▁싶더라고요	-11.7113
▁나서부터	-11.7115
▁가리지	-11.7115
릉	-11.7118
▁견디	-11.712
▁7000	-11.7122
▁정답	-11.7123
▁중국에	-11.7125
▁벗어	-11.7126
▁후회가	-11.7127
▁플라스틱	-11.7128
▁하루를	-11.7133
▁무인	-11.7136
▁트와이스	-11.7136
▁건강에도	-11.7136
▁봉투	-11.7137
▁걱정이야	-11.7137
헤	-11.714
번밖에	-11.7143
▁지리산	-11.7143
▁생물	-11.7144
▁뮤직	-11.7145
▁여건	-11.7146
하느라	-11.7147
▁생각하시는	-11.7149
로서는	-11.7154
▁생긴다고	-11.7156
▁불편함이	-11.7156
▁드림	-11.7157
▁먹었고	-11.7157
▁제외	-11.7157
▁대표적으로	-11.7158
▁선배들이	-11.7159
▁마른	-11.716
▁정신적인	-11.7163
▁비염	-11.7164
▁먹었었	-11.7165
▁송도	-11.7167
▁우는	-11.7167
▁울었	-11.717
▁특이하	-11.7172
▁지정	-11.7173
▁균형	-11.7173
큼	-11.7178
▁탕수육	-11.718
▁행복하고	-11.7182
▁전문적인	-11.7183
▁만나면은	-11.7184
▁주변의	-11.7186
▁글램핑	-11.7189
▁맡아	-11.719
보험	-11.7191
▁이러지	-11.7191
▁구매한	-11.7194
주실	-11.7195
▁호텔에	-11.7197
팍	-11.7197
었다가	-11.7198
▁크기가	-11.7199
▁연예인을	-11.7201
▁알았지	-11.7203
▁강아지한테	-11.7203
▁중인	-11.7204
▁했더라	-11.7207
▁덕질	-11.7208
▁별로인	-11.7209
역을	-11.7213
젤	-11.7214
▁부조	-11.7215
▁건강해	-11.7216
▁기장	-11.7217
▁났던	-11.7223
▁토트넘	-11.7223
▁명품을	-11.7224
▁조금이라도	-11.7225
▁시작하게	-11.7227
료를	-11.723
▁변동	-11.723
▁쳐다	-11.7232
더만	-11.7232
▁돌잔치	-11.7232
▁예민한	-11.7232
하죠	-11.7232
▁생계	-11.7233
▁좋아했었어	-11.7233
영화	-11.7237
웨	-11.7238
▁잠수	-11.7241
▁공부해	-11.7241
▁식습관	-11.7241
▁아팠던	-11.7241
▁순환	-11.7242
▁독립을	-11.7244
▁담그	-11.7245
▁노력이	-11.7247
▁유연	-11.7249
▁따릉이	-11.725
▁트렌드가	-11.725
▁과일을	-11.7254
하게끔	-11.7254
▁식당에서	-11.7255
▁않나요	-11.7255
▁빡빡	-11.7258
▁피시	-11.7259
▁되기는	-11.7261
▁놓으니까	-11.7262
▁나랑은	-11.7267
▁추가로	-11.7268
▁주민들이	-11.7269
▁사람이니까	-11.7269
▁굿즈	-11.7276
갚	-11.7278
▁거부감이	-11.7279
▁심해서	-11.7281
▁받아들일	-11.7285
▁드러나	-11.7286
▁청주	-11.7288
▁신중하게	-11.7289
▁범죄를	-11.729
▁순간이	-11.7293
▁취직이	-11.7293
셨다고	-11.7294
▁우영우	-11.7294
▁해갖고	-11.7296
▁기억나지	-11.7296
▁확대	-11.7296
▁양양	-11.7297
▁친구야	-11.7298
▁싸서	-11.7298
▁떡볶이를	-11.73
▁타게	-11.7301
삐	-11.7301
▁방과	-11.7301
▁땀을	-11.7302
▁상대가	-11.7304
▁장치	-11.7308
▁대박이	-11.7309
▁결제를	-11.7309
않	-11.731
듀	-11.7311
▁어딘지	-11.7312
▁사람처럼	-11.7313
▁상황은	-11.7315
▁시작하면서	-11.7316
▁친구네	-11.7319
▁꿈에	-11.7319
치킨	-11.7323
▁얘도	-11.7324
▁연락도	-11.7325
▁웬만하면은	-11.7327
▁쇼핑도	-11.7328
▁드라마에	-11.7329
▁크루즈	-11.7329
▁건물이	-11.7335
▁교체	-11.7337
▁상황에서는	-11.7337
▁휴학을	-11.7338
팽	-11.7338
▁리모델링	-11.7338
▁간격이	-11.7339
▁보내야	-11.7339
▁충격을	-11.734
▁대상으로	-11.7344
긴데	-11.7345
해주는	-11.7345
▁피티를	-11.7346
▁무너지	-11.7347
▁없으세요	-11.7348
▁길고	-11.7349
▁가게에서	-11.7349
▁위협	-11.735
▁힘들지만	-11.7351
▁얘네가	-11.7352
▁포기를	-11.7353
룬	-11.7354
▁줄어든	-11.7356
▁동물원	-11.7357
▁전인가	-11.7358
▁지킬	-11.736
▁올리면	-11.7365
▁부동산은	-11.7371
▁응원하는	-11.7372
▁올랐다	-11.7373
▁외동	-11.7373
▁터졌	-11.7374
▁됐지만	-11.7376
▁느끼면서	-11.7381
▁의식이	-11.7383
▁대략	-11.7383
▁제출	-11.7384
되면은	-11.7384
▁주거든	-11.7386
▁비싸잖아	-11.7387
▁달린	-11.7388
▁스포	-11.7391
▁한옥	-11.7392
▁상황도	-11.7394
▁합정	-11.7396
▁잘못한	-11.7398
묵	-11.74
▁면역력	-11.74
▁개나	-11.74
▁헷갈리	-11.74
▁바라보는	-11.7402
▁다쳤	-11.7402
▁오시는	-11.7403
하기엔	-11.7406
▁빠지면	-11.7409
▁부분만	-11.7411
▁추고	-11.7412
▁코너	-11.7412
▁만나자	-11.7413
▁좌우	-11.7418
▁그쪽을	-11.742
▁알면	-11.7421
▁아니었나	-11.7421
▁받았고	-11.7426
▁좋겠다라고	-11.7427
▁건강하고	-11.7428
▁성적을	-11.743
▁내용도	-11.743
▁다양하고	-11.7431
▁기념	-11.7435
▁아줌마들	-11.7435
▁줄래	-11.7438
렀	-11.7438
▁형이랑	-11.7439
▁작품들	-11.744
▁빼면	-11.744
바지	-11.7441
▁정기	-11.7443
▁없었으면	-11.7443
▁확보	-11.7444
▁세우는	-11.7445
▁며느리가	-11.7446
▁키우시는	-11.7446
▁배려를	-11.7447
▁대학원을	-11.7447
▁확률	-11.7448
▁수요일	-11.7448
임에도	-11.7449
▁느껴지더라고	-11.7452
▁구워서	-11.7452
▁재밌는데	-11.7453
▁식물을	-11.7455
▁기울	-11.7458
▁머리에	-11.7459
▁사과를	-11.7462
▁직업도	-11.7463
▁루틴	-11.7463
▁축제를	-11.7463
▁안락사가	-11.7464
▁신선한	-11.7466
돌아	-11.7472
▁즉흥적으로	-11.7472
▁휴대폰을	-11.7473
▁안정성	-11.7473
▁글로	-11.7473
▁생각하십니까	-11.7474
▁심어	-11.7474
▁초록색	-11.7474
▁자기들끼리	-11.7475
▁괜찮아요	-11.7478
▁속도가	-11.748
▁따라오	-11.7481
▁개선이	-11.7481
▁무선	-11.7484
▁수원역	-11.7485
▁범죄자	-11.7488
▁점심에	-11.7489
▁반응을	-11.7491
▁화이트	-11.7492
▁알람	-11.7493
▁말았	-11.7493
▁좋겠네	-11.7496
▁수치가	-11.7499
▁정할	-11.7499
하겠네	-11.7501
느냐에	-11.7502
▁국가가	-11.7503
▁남편한테	-11.7505
▁판다	-11.7506
▁아저씨들	-11.7506
▁소통을	-11.7507
▁돌아다녀	-11.7507
▁클래스	-11.7507
▁사라지	-11.7509
딜	-11.7511
▁사회성	-11.7512
▁65	-11.7512
▁불렀던	-11.7513
▁연애가	-11.7519
▁저걸	-11.7519
멀	-11.7521
영이	-11.7523
▁낚시를	-11.7525
▁쓰려고	-11.7526
▁구경을	-11.7529
처리	-11.7529
▁화분	-11.753
▁무역	-11.7532
음을	-11.7533
▁매력을	-11.7534
▁트레이닝	-11.7534
꺾	-11.7534
하느라고	-11.7539
▁매출	-11.754
▁테마	-11.7541
▁돌려서	-11.7541
개만	-11.7544
▁격차	-11.7544
▁더불어	-11.7545
▁좋아하는구나	-11.7545
▁학원도	-11.7545
▁방법이라고	-11.7547
▁볼거리	-11.7548
졌고	-11.7549
▁자세가	-11.755
▁시누	-11.7551
▁유치	-11.7551
▁놔두	-11.7552
칼	-11.7553
▁좋아해가지고	-11.7554
▁곳인데	-11.7554
▁드라이	-11.7556
▁미드	-11.7557
▁느꼈는데	-11.7558
▁아쉽	-11.7559
▁민족	-11.7562
▁깔려	-11.7563
▁생각들이	-11.7563
▁시장을	-11.7564
▁데이터를	-11.7566
▁심심하	-11.7567
▁규정	-11.7569
▁서울대	-11.757
이었으면	-11.7572
▁변화를	-11.7572
연이	-11.7572
▁마셨	-11.7574
▁버스로	-11.7575
▁다르더라고	-11.7581
▁화폐	-11.7582
▁수영은	-11.7583
▁웃는	-11.7584
▁변한	-11.7584
▁노래들을	-11.7585
▁뭉쳐	-11.7586
▁멋있게	-11.7586
▁흥행	-11.7589
타임	-11.7589
▁성격상	-11.7589
▁경향	-11.759
▁자차	-11.759
▁어울려서	-11.7592
▁편안하	-11.7593
▁가족들과	-11.7593
▁풀리	-11.7594
▁문젠	-11.7594
▁환상	-11.7594
600	-11.7595
▁진정	-11.7596
▁지하철에서	-11.7596
▁마음가짐	-11.7598
▁쪽에는	-11.7598
▁유튜버가	-11.76
▁남지	-11.7601
▁머물	-11.7604
▁애플이	-11.7605
▁빨래를	-11.7606
▁바라보고	-11.7606
▁판매하는	-11.7607
▁넘어가고	-11.7607
▁의미에서	-11.7608
▁여기를	-11.761
▁쉬어	-11.7612
▁즐기면서	-11.7614
▁모집	-11.7615
덧	-11.7616
▁사망	-11.7618
▁에이블리	-11.7625
▁베스트	-11.7627
▁검정	-11.7628
▁차이점	-11.7631
▁출근을	-11.7634
▁더군다나	-11.7634
▁아프리카	-11.7634
▁쉬었	-11.7634
▁사막	-11.7641
▁중단	-11.7644
▁늘어나는	-11.7644
▁그분들은	-11.7644
였는지	-11.7645
▁흔하	-11.7649
▁관리도	-11.7649
▁고장이	-11.7649
▁나아지	-11.765
▁금붕어	-11.7652
▁컴퓨터로	-11.7657
▁친구들의	-11.7658
▁방지	-11.7659
▁추울	-11.766
▁색상	-11.7662
▁폭발	-11.7669
▁간다든지	-11.7672
▁가리고	-11.7672
▁이익을	-11.7675
▁않으려고	-11.7676
▁어울려	-11.7677
▁입원을	-11.7679
낄	-11.7679
▁페스티벌	-11.768
▁후쿠시마	-11.768
▁불편함	-11.7681
▁안에서도	-11.7682
▁일어나지	-11.7683
▁상품이	-11.7684
▁들다	-11.7684
▁크잖아	-11.7684
▁기르는	-11.7685
▁어려웠던	-11.7686
▁있구나라는	-11.7688
▁집안이	-11.7688
▁뛰어다니	-11.7689
▁시간이나	-11.769
▁짐이	-11.7694
▁있을까라는	-11.7694
▁에피소드가	-11.7694
▁넉넉	-11.7698
▁핸드	-11.7699
여야	-11.7699
▁연계	-11.7704
▁정책이	-11.7706
▁자격증은	-11.7707
▁시스템을	-11.7708
▁회색	-11.7711
▁나왔지	-11.7711
▁사용해서	-11.7712
▁들고요	-11.7717
▁기후	-11.7718
▁약해	-11.7719
▁예전보다는	-11.7719
▁구하고	-11.7727
▁신인	-11.7729
이라기보다는	-11.7729
▁오라	-11.7729
▁쓸데없는	-11.7735
▁증명	-11.7736
▁옥상	-11.7738
▁코인을	-11.774
총	-11.7742
▁터지고	-11.7747
▁내려갈	-11.7748
▁끼치	-11.7748
▁러브	-11.7749
▁합쳐	-11.7753
▁집중이	-11.7754
▁벌금	-11.7754
왔기	-11.7756
▁후보	-11.7756
▁되나요	-11.776
▁말인지	-11.7761
▁손님들이	-11.7762
▁좋아야	-11.7762
▁코치	-11.7762
▁소름	-11.7762
▁지방에서	-11.7763
▁받는다고	-11.7764
▁박혀	-11.7765
▁느낌이라서	-11.7765
▁광역	-11.7765
▁성공을	-11.7766
▁담가	-11.7768
플레이	-11.7768
▁겪는	-11.7771
사리	-11.7771
▁이름도	-11.7774
▁쓰다가	-11.7774
▁만나러	-11.7774
▁발생하는	-11.7775
▁인터넷이	-11.7778
롯	-11.778
겠는	-11.778
▁팔아서	-11.7781
▁없었을	-11.7785
쭉	-11.7786
▁다친	-11.7791
겠고	-11.7793
▁공주	-11.7795
▁바뀌었어	-11.7797
▁설치가	-11.7798
▁갇혀	-11.7799
버리는	-11.78
▁잡기	-11.78
▁연락하는	-11.78
▁기업에	-11.7803
▁취향에	-11.7803
▁말투	-11.7805
▁비용은	-11.7806
▁같았	-11.7806
주택	-11.7807
▁갖추	-11.781
▁우리보다	-11.781
XX	-11.7811
▁맛있어요	-11.7812
▁지방이	-11.7814
▁복잡한	-11.7814
▁느낌인데	-11.7815
▁없냐	-11.7817
▁깻잎	-11.7818
▁에스케이	-11.7819
▁대화하는	-11.7819
▁맞추고	-11.782
적으론	-11.7821
형으로	-11.7823
▁부장님	-11.7825
▁조카들	-11.7825
▁물어봤어	-11.7827
▁워라밸	-11.7827
▁문구	-11.7828
▁선생님들은	-11.7829
▁영상들	-11.7833
▁멤버가	-11.7835
▁콜레스테롤	-11.7837
▁성격인	-11.7838
▁예뻐서	-11.7839
▁제목은	-11.7841
샌	-11.7844
▁컴백	-11.7846
▁책들	-11.7846
▁효율	-11.7847
▁요약	-11.7848
▁보여주고	-11.785
▁가기에는	-11.7851
흘	-11.7854
▁평가를	-11.7854
▁부모님의	-11.7855
▁이렇다	-11.786
▁가족들도	-11.7861
▁보충	-11.7861
▁이빨	-11.7862
▁가까우니까	-11.7864
▁바탕으로	-11.7864
▁옷들이	-11.7865
▁자유로운	-11.7866
▁중독성	-11.7868
▁점심을	-11.7869
▁축구는	-11.787
▁힘들었고	-11.7871
▁신축	-11.7872
▁강해	-11.7874
쳤던	-11.7874
▁개발이	-11.7875
▁접하게	-11.7875
▁팬들이	-11.7875
▁시간과	-11.7876
▁제도를	-11.7876
▁메모	-11.7881
▁윤리	-11.7882
▁집어넣	-11.7883
▁조용하	-11.7884
▁부분이라고	-11.7884
▁상업	-11.7885
▁요샌	-11.7885
▁여의도	-11.7887
▁싶다라고	-11.7889
▁변했	-11.7891
▁가격으로	-11.7891
▁목소리를	-11.7893
▁관광객	-11.7893
▁고민이야	-11.7894
▁오븐	-11.7895
싹	-11.7895
▁서서히	-11.7896
▁꺼려지	-11.7898
▁일했던	-11.7899
▁변해	-11.7899
▁질문이	-11.7899
▁긍정적이	-11.79
▁청년들	-11.7902
▁발레	-11.7905
▁돌아가면서	-11.7906
▁생존	-11.7906
셔가지고	-11.7908
▁아닌지	-11.7909
▁잡은	-11.7909
▁않잖아요	-11.7911
▁시끄러운	-11.7911
시면서	-11.7911
▁지낸	-11.7912
멘	-11.7915
▁주식으로	-11.7918
▁모르기	-11.7918
▁사귀어	-11.7919
▁좋으신	-11.7923
▁비판	-11.7926
▁기르고	-11.7928
▁전과	-11.793
▁말하면은	-11.793
▁이상해	-11.7932
▁바깥에	-11.7932
▁본인도	-11.7933
▁친가	-11.7944
▁결혼이라는	-11.7945
▁귀엽게	-11.7946
▁생각하다	-11.7946
▁단위	-11.7946
▁되세요	-11.7947
▁기대하고	-11.7947
▁상추	-11.7949
▁중독이	-11.795
▁주어진	-11.795
▁직업으로	-11.7953
▁예민해	-11.7955
▁쳐도	-11.7956
▁정리가	-11.7956
▁의외	-11.7957
▁굉장한	-11.7958
▁그러거든	-11.7959
▁되진	-11.796
▁더럽	-11.7962
▁사료를	-11.7962
▁케이티	-11.7963
▁주스	-11.7963
▁현금을	-11.7964
겨서	-11.7965
▁예정이	-11.7967
▁다이빙	-11.7968
▁정규직	-11.7968
▁재미는	-11.7971
▁야경	-11.7975
▁상영	-11.7976
▁캐릭터를	-11.7978
▁이왕이면	-11.7979
▁프로필	-11.7979
▁주말에는	-11.798
▁들었었	-11.7981
▁귀찮은	-11.7983
▁직거래	-11.7986
▁허벅지	-11.7986
▁예식장	-11.7987
▁버터	-11.7987
▁보험을	-11.7988
▁큰데	-11.7988
차선	-11.7989
▁프라이	-11.7989
▁정기적으로	-11.799
▁측정	-11.799
▁창업을	-11.7993
▁사정이	-11.7993
눈	-11.7994
▁야구는	-11.7995
에서부터	-11.7999
▁사진으로	-11.8001
콤	-11.8004
▁죽으면	-11.8008
인당	-11.8009
▁학습을	-11.801
▁전제	-11.8013
력도	-11.8013
▁인스턴트	-11.8015
▁지냈던	-11.8015
▁성시경	-11.8015
▁키웠었는데	-11.802
▁가실	-11.802
▁장점을	-11.802
▁자녀가	-11.8023
▁남자친구가	-11.8023
▁성형	-11.8024
▁필라테스를	-11.8024
▁여기에서	-11.8024
▁여름휴가	-11.8024
분이랑	-11.8026
▁접어	-11.8026
▁목돈	-11.8027
굳	-11.8028
▁줍는	-11.8028
시키기	-11.8029
▁가입을	-11.8031
▁혼란	-11.8031
▁작아서	-11.8034
▁호불호가	-11.8035
▁들어온다	-11.8035
▁살아왔	-11.8035
▁풀려	-11.8037
▁받는데	-11.8038
▁나라들	-11.8038
▁사례가	-11.8038
▁직구를	-11.8039
▁힐링이	-11.8043
▁인기를	-11.8043
▁뜨거운	-11.8043
▁엊그저께	-11.8043
실까요	-11.8045
▁용도로	-11.8045
▁더울	-11.8046
▁본다는	-11.8046
▁먹고살	-11.8047
▁좋진	-11.805
▁인강	-11.8051
▁강제로	-11.8052
▁당신도	-11.8053
▁콩국수	-11.8053
▁보았	-11.8054
▁관계에서	-11.8055
▁언니들이	-11.8055
▁행복을	-11.8058
씬	-11.807
▁비슷한데	-11.8071
▁버려야	-11.8071
캐	-11.8072
삽	-11.8072
내서	-11.8073
▁예전보다	-11.8074
▁귀찮고	-11.8074
▁보여지는	-11.8075
▁인연	-11.8076
▁양배추	-11.8081
▁꽂혀	-11.8081
챙	-11.8088
되는데	-11.8089
▁먹었으면	-11.8089
▁사용하면	-11.8095
▁부수	-11.8096
▁연기가	-11.8098
▁말씀드렸다시피	-11.8101
▁파워	-11.8101
▁특색	-11.8101
▁디스크	-11.8101
▁집밥	-11.8103
▁파란색	-11.8103
▁않는다는	-11.8104
▁혈액	-11.8105
▁체육관	-11.8105
▁되었어	-11.8106
▁원장님	-11.8107
▁복학	-11.8107
사람이	-11.8108
▁독도	-11.8108
▁길어지	-11.8108
댔	-11.811
▁태연	-11.8111
▁조용하고	-11.8114
▁열풍	-11.8114
▁매장에서	-11.8116
▁패턴이	-11.8117
▁중간중간에	-11.8117
▁괜찮더라고요	-11.8118
▁돌아서	-11.8119
▁배고프	-11.8119
▁아이들하고	-11.8123
▁머니	-11.8124
▁강조	-11.8125
▁집사	-11.8128
러스	-11.8128
▁거래가	-11.8128
▁키운다고	-11.8129
▁붕어빵	-11.8129
▁봉사활동	-11.8129
▁듣다가	-11.8132
▁그곳에	-11.8134
▁지배	-11.814
▁더욱	-11.8141
▁비오	-11.8143
회사	-11.8144
▁됐거든요	-11.8145
▁받았어요	-11.8146
▁무거워	-11.8148
▁배우면서	-11.815
▁생각들을	-11.8151
님께서	-11.8155
▁모이면	-11.8156
▁나름의	-11.816
▁보험이	-11.8161
리그	-11.8162
▁어려움을	-11.8167
▁화려한	-11.8167
▁이루어져	-11.8169
▁신호	-11.817
▁선선	-11.8172
▁이상으로	-11.8172
▁살자	-11.8172
현이	-11.8173
▁변경	-11.8174
검	-11.8175
뇨	-11.8176
▁피곤한	-11.8177
▁오셔	-11.8178
▁구멍	-11.8179
▁말하지	-11.8179
▁여행지를	-11.818
▁가더라고요	-11.8181
▁궁금	-11.8182
▁별론	-11.8182
▁하든가	-11.8183
▁소심한	-11.8183
▁성장을	-11.8185
▁아프더라고	-11.8185
▁했었을	-11.8191
▁간격	-11.8192
픈	-11.8193
▁의문	-11.8194
▁괜찮으면	-11.8194
▁편리하고	-11.8195
▁스우파	-11.8196
▁정주행	-11.8196
▁안정감	-11.8197
▁안타깝게	-11.8199
중이	-11.8201
▁재택	-11.8202
졌잖아	-11.8202
▁그러셨	-11.8203
▁편하다고	-11.8207
▁확장	-11.8208
▁이름으로	-11.821
▁활력	-11.8212
30	-11.8214
▁이르	-11.8215
셨어	-11.8218
▁에이에스	-11.8218
▁어울리고	-11.8219
판에	-11.8219
▁왜냐	-11.822
▁모셔	-11.8224
칫	-11.8225
▁서비스를	-11.8226
▁언제나	-11.823
원인데	-11.8231
긍	-11.8234
▁구석	-11.8235
▁벌기	-11.8237
▁마당이	-11.8237
▁질투	-11.8238
▁식당에	-11.8238
▁흔들리	-11.8239
▁타인	-11.8239
▁나한텐	-11.8242
읍	-11.8245
▁택시는	-11.8247
▁시민들	-11.8248
▁상관은	-11.825
▁휴지	-11.825
▁사무	-11.8251
▁몰랐거든	-11.8254
▁혐오	-11.8254
▁가죽	-11.8254
▁풍경이	-11.8257
▁편지를	-11.8257
인지를	-11.8258
▁찾아봐	-11.8259
한다기보다는	-11.8263
▁나왔었는데	-11.8264
▁하다못해	-11.8264
하자는	-11.8265
▁빠지지	-11.8266
▁논란	-11.8266
▁지워	-11.8267
▁웨이트	-11.8267
▁보내주	-11.8272
▁루트	-11.8274
▁시원하게	-11.8274
▁생각하긴	-11.8278
▁방안이	-11.8279
하셨다고	-11.828
윈	-11.8283
▁끝내고	-11.8283
▁환갑	-11.8284
▁멸치	-11.8286
▁오래돼서	-11.8286
▁돼야지	-11.8287
▁상식	-11.8288
▁아주머니	-11.829
▁사람이라서	-11.829
▁연관이	-11.8293
▁첫사랑	-11.8293
▁있다거나	-11.8294
▁노인분들	-11.8295
▁멋있고	-11.8295
였구나	-11.8296
▁집어	-11.8299
▁맛집은	-11.8299
▁개념으로	-11.8303
▁맡고	-11.8303
킨	-11.8308
▁그러잖아요	-11.8308
▁둘째가	-11.8309
▁핑크	-11.8309
았으면	-11.8313
▁조교	-11.8314
겠니	-11.8315
▁사연	-11.8315
동에서	-11.8315
▁삼아서	-11.8317
▁어른들은	-11.8318
▁신촌	-11.832
▁못했지만	-11.8321
▁동대문	-11.8322
▁가볍	-11.8323
▁한편으로	-11.8323
▁정의	-11.8324
▁역량	-11.8329
▁선거	-11.833
▁벌어지	-11.8332
▁선크림	-11.8332
갠	-11.8332
잼	-11.8332
▁영웅이	-11.8335
▁옆으로	-11.8335
▁야외에서	-11.8338
▁차이점이	-11.834
▁이쪽에	-11.8341
▁미뤄	-11.8342
▁이세돌	-11.8342
▁이야기하고	-11.8343
▁심각하	-11.8344
▁되겠죠	-11.8344
▁절제	-11.8347
▁갔었지	-11.8351
▁드셨	-11.8352
▁쪼끔이라도	-11.8353
▁했으면은	-11.8356
▁지나니까	-11.8356
비로	-11.836
▁주먹	-11.8362
▁장르는	-11.8366
▁하필	-11.8367
▁뚜렷	-11.8368
▁나갔을	-11.8369
▁기부	-11.8369
▁추억도	-11.8369
▁재밌기	-11.8371
▁기쁘	-11.8372
▁존중해	-11.8373
▁보시고	-11.8376
▁이까	-11.838
▁모르겠는	-11.8384
▁벌레가	-11.8385
▁순서	-11.8385
▁처분	-11.8387
▁없니	-11.8387
▁각종	-11.8389
분께서	-11.8389
▁아이엔티피	-11.8391
놓는	-11.8393
▁않도록	-11.8394
▁되겠다라는	-11.8394
▁틀고	-11.8395
▁어렵잖아	-11.8396
▁벌었	-11.84
▁맛있었고	-11.8401
▁마시면서	-11.8404
분이면	-11.8406
분씩	-11.8407
▁적혀	-11.8407
▁정권	-11.8413
▁계정	-11.8415
▁백화점에	-11.8415
▁장갑	-11.8416
▁배달비	-11.8418
▁조카가	-11.8418
▁꾸미는	-11.8418
▁지우	-11.8418
이었거든요	-11.842
표가	-11.8421
됐다고	-11.8423
▁늦게까지	-11.8424
▁좋아했었	-11.8425
▁장르의	-11.8425
▁노년	-11.8426
▁채로	-11.8426
▁흐름이	-11.8427
▁한글	-11.8427
▁단톡방	-11.843
▁바이러스	-11.843
▁허위	-11.8432
▁궁금하고	-11.8434
▁감사한	-11.8435
▁화나	-11.8436
▁심하다	-11.8436
▁버즈	-11.8438
▁있었을까	-11.8439
▁시절을	-11.844
▁선배가	-11.8444
▁심사	-11.8444
▁정년	-11.8447
▁화장실을	-11.8448
▁투수	-11.8448
웬	-11.8449
▁불안감	-11.8449
쿵	-11.845
▁패러글라이딩	-11.845
▁줄어드는	-11.845
▁적절한	-11.845
▁화요일	-11.845
▁들게	-11.8451
▁아버지도	-11.8451
▁지나가다가	-11.8452
하셨는데	-11.8453
▁나왔거든	-11.8456
▁잔디	-11.8457
▁통하는	-11.846
▁퀄리티가	-11.8462
▁국물이	-11.8462
▁익숙해져	-11.8463
▁동의해	-11.8465
▁소중하	-11.8466
▁돌아다녔	-11.847
▁오브	-11.8471
▁이루어지는	-11.8472
▁붙이고	-11.8473
▁티를	-11.8479
▁담고	-11.848
▁자소서	-11.848
년생	-11.8481
▁전시를	-11.8483
▁난리가	-11.8483
▁즐거웠던	-11.8484
▁갈색	-11.8485
▁그랬었거든	-11.8489
쏙	-11.849
▁숨어	-11.8492
▁대체하는	-11.8494
▁비행기가	-11.8495
▁같다라고	-11.8495
▁누군가를	-11.8496
▁아프다고	-11.8496
▁약속이	-11.85
▁알겠다	-11.8502
하겠지	-11.8503
▁연예	-11.8504
▁독감	-11.8506
▁진학을	-11.8506
▁떨어지지	-11.8507
▁외국인들	-11.8508
▁규제를	-11.8512
▁스리디	-11.8513
했냐면	-11.8513
▁헤어지고	-11.8513
▁도덕	-11.8514
▁중국집	-11.8514
▁찌고	-11.8516
▁공무원이	-11.8519
▁찾아본	-11.8525
▁희망이	-11.8525
▁이병헌	-11.8529
▁다녔었는데	-11.8529
▁빼놓	-11.853
▁제재	-11.853
께서는	-11.8531
▁주긴	-11.8531
▁결론적으로	-11.8534
▁겹쳐	-11.8534
▁편하다	-11.8536
겠지마는	-11.8537
▁달리는	-11.8538
국수	-11.8538
▁고맙고	-11.8539
▁디피	-11.854
▁하객	-11.854
▁찾아봐야	-11.8543
▁알아본	-11.8543
▁로켓	-11.8543
▁외향적이	-11.8546
▁논리	-11.8547
▁다큐멘터리	-11.8549
▁충분한	-11.8549
▁편안해	-11.8551
놓으면	-11.8552
▁마시면	-11.8555
▁넷플릭스에	-11.8556
▁만일	-11.8557
▁나눠져	-11.8557
▁세포	-11.8557
▁어머니께서	-11.8557
▁고쳐야	-11.8559
▁응원을	-11.8562
▁28	-11.8562
▁키워본	-11.8562
▁바지를	-11.8564
▁정도까지는	-11.8564
▁두면	-11.8564
▁진입	-11.8567
▁발전할	-11.8569
뿐더러	-11.8569
▁자취방	-11.8572
▁색감	-11.8572
▁범죄가	-11.8572
▁깊어	-11.8573
▁맞출	-11.8575
▁양심	-11.8575
▁니가	-11.8576
▁불리	-11.8577
▁취업에	-11.8579
넥	-11.8579
▁발생을	-11.858
▁맛있겠다	-11.8581
▁노선이	-11.8582
▁드세요	-11.8583
▁평창	-11.8583
▁거랑은	-11.8587
▁근거	-11.8588
▁배제	-11.8589
▁소풍	-11.8595
▁간편하게	-11.8596
▁놀다	-11.8597
▁단정	-11.8604
▁본인들	-11.8606
▁남들은	-11.8608
▁용량	-11.8609
▁유지할	-11.8609
▁이정재	-11.861
▁가정에서	-11.861
▁들어가면서	-11.8611
▁실현	-11.8612
▁복지가	-11.8613
▁비쌀	-11.8613
▁흥미롭	-11.8614
▁대부분은	-11.8616
▁지내야	-11.8617
▁억울	-11.8618
▁농장	-11.862
▁중점	-11.862
▁진행하는	-11.8621
▁거리에	-11.8622
▁남았어	-11.8622
▁대기업에	-11.8624
▁불편함을	-11.8627
젓	-11.8629
▁버스에서	-11.863
▁해주면	-11.8631
▁자유롭	-11.8632
▁다닌다	-11.8633
▁막창	-11.8635
▁운동으로	-11.8636
▁전역	-11.8636
▁실은	-11.8637
▁동선	-11.8639
▁여쭤봐도	-11.864
껌	-11.864
▁이해하고	-11.8641
▁추워서	-11.8647
▁실망을	-11.8649
▁두꺼운	-11.865
▁적어서	-11.865
▁김치가	-11.865
▁이득을	-11.8651
주머니	-11.8653
키로	-11.8656
▁고음	-11.866
▁기프티콘	-11.866
▁사운드	-11.866
▁계시니까	-11.8663
▁소품	-11.8664
개로	-11.8665
▁즐거웠	-11.8666
▁생각하진	-11.8674
하셨어	-11.8674
▁팀에	-11.8674
▁비싼데	-11.8679
▁대비해서	-11.8679
▁뛰어난	-11.868
▁불쾌	-11.8683
▁아닐까라는	-11.8688
쇄	-11.869
캡	-11.869
▁셰프	-11.8691
▁익히	-11.8692
▁중간중간	-11.8692
▁사회를	-11.8693
▁구별	-11.8694
▁동양	-11.8697
▁제어	-11.8699
▁물회	-11.87
▁똑같지	-11.8701
층에서	-11.8702
됐으면	-11.8704
▁애기들	-11.8705
▁부탁을	-11.8706
▁경찰이	-11.8708
랫	-11.871
텍	-11.871
▁머리카락	-11.871
▁부담스러운	-11.8712
▁소개시켜	-11.8713
▁격리	-11.8717
▁취급	-11.8717
▁신도시	-11.8718
왔습니다	-11.8719
▁궁금하네	-11.8721
▁움직임	-11.8721
▁두려워	-11.8721
▁나왔더라고	-11.8721
▁구간	-11.8722
▁검은	-11.8723
▁흘리고	-11.8726
▁얘랑	-11.8727
▁경력을	-11.8727
▁연수	-11.8727
▁지어서	-11.8728
▁구매해	-11.8728
▁바른	-11.8731
▁트레이너	-11.8731
▁어깨가	-11.8731
▁싶었고	-11.8735
▁실물	-11.8736
▁모시	-11.8736
졌어요	-11.8737
▁저작권	-11.8741
▁리필	-11.8743
▁질환	-11.8745
▁반전	-11.8745
▁지하철역	-11.8746
▁디자이너	-11.8751
▁가족과	-11.8752
▁자연스러운	-11.8755
▁마트에	-11.8756
▁내려놓	-11.8757
▁망치	-11.8759
▁편리해	-11.876
▁동물들이	-11.8762
▁히트	-11.8768
▁소녀	-11.8769
▁뒤집어	-11.8772
▁설악산	-11.8772
▁빈티지	-11.8772
▁교통사고	-11.8772
▁하이라이트	-11.8772
▁응급실	-11.8772
▁친해지는	-11.8773
▁현실에	-11.8775
▁따라다니	-11.8775
▁익숙한	-11.8775
▁보태	-11.8776
▁부족해서	-11.8778
▁활발한	-11.8778
▁진주	-11.8779
▁나왔어요	-11.8779
딴	-11.8779
▁선호하고	-11.878
▁밀려	-11.8782
▁매력적이	-11.8785
▁장면을	-11.8786
▁날씨에	-11.8786
▁정확히는	-11.8792
▁삿포로	-11.8792
▁쇼트트랙	-11.8792
농	-11.8793
▁몰아서	-11.8794
관리	-11.8794
▁위험성	-11.8797
▁이득	-11.8797
▁그동안에	-11.88
▁사라졌	-11.88
▁한류	-11.88
▁늘어났	-11.8801
▁여러분	-11.8802
▁걸렸어	-11.8802
▁놀이기구	-11.8802
▁몸의	-11.8803
홍	-11.8805
▁가든지	-11.8808
▁똑똑한	-11.8812
▁판단이	-11.8813
▁누나랑	-11.8813
▁소극적	-11.8814
▁많아가지고	-11.8814
▁되더라도	-11.8815
▁알았다	-11.8815
▁돌아가서	-11.8818
▁몸무게가	-11.882
▁이상하다	-11.882
▁아이들에게	-11.882
▁치우고	-11.8823
▁의견에	-11.8825
▁언어를	-11.8825
▁먹자고	-11.8825
▁시간들이	-11.8825
▁국내에	-11.8829
▁비워	-11.8831
넛	-11.8833
▁미리미리	-11.8833
▁보였어	-11.8834
▁언덕	-11.8835
▁손질	-11.8836
▁드론	-11.8836
▁열린	-11.8837
▁남동생이	-11.8837
▁국립	-11.8838
▁말했는데	-11.8842
▁테슬라	-11.8843
▁포지션	-11.8843
▁에이아이의	-11.8844
▁인스타에	-11.8846
이었다	-11.8846
▁됐네	-11.8846
▁등록을	-11.8846
▁감당할	-11.8847
▁이미지를	-11.8847
▁세팅	-11.8853
▁마동석	-11.8854
▁정반대	-11.8854
▁휴양림	-11.8854
▁자녀를	-11.8855
▁반성	-11.8856
▁모습들이	-11.8856
시키지	-11.8856
▁민원	-11.8859
▁식감	-11.8863
십니까	-11.8865
▁해봐	-11.8866
년제	-11.8866
▁팔아야	-11.8872
준다거나	-11.8873
▁자기네들	-11.8873
▁타이틀	-11.8874
▁누나도	-11.8874
▁재밌더라	-11.8874
▁여러모로	-11.8874
▁신용	-11.8875
▁되니	-11.8879
▁굴러	-11.888
▁좋아하던	-11.8881
▁아무나	-11.8883
▁퍼스널	-11.8884
▁냄새나	-11.8888
▁안경을	-11.8888
▁구단	-11.8892
84	-11.8893
▁불편했던	-11.8893
▁생긴다	-11.8895
▁커다란	-11.8895
▁바리스타	-11.8895
▁봉사를	-11.8899
▁애인	-11.8901
▁빡세게	-11.8902
▁기사님	-11.8904
▁무엇	-11.8904
▁편이잖아	-11.8904
▁촬영을	-11.8906
▁잘하니까	-11.8906
▁키우던	-11.8907
▁당겨	-11.8909
▁나갔는데	-11.8909
시쯤	-11.8912
▁임시	-11.8913
▁자식들한테	-11.8914
▁힘들면	-11.8915
▁선호를	-11.8915
▁돼지국밥	-11.8915
▁길거리에서	-11.8917
▁부모님을	-11.8918
▁용산	-11.892
▁얘기야	-11.892
▁이러다가	-11.8924
▁거제도	-11.8924
▁데이트를	-11.8925
▁효율적이	-11.893
겠나	-11.8934
▁천재	-11.8934
즘	-11.8934
▁없으	-11.8934
▁집주인	-11.8937
▁비닐	-11.8938
▁범위가	-11.8939
▁세상에서	-11.8941
▁재료가	-11.8943
라면서	-11.8945
▁강제	-11.8946
냅	-11.8947
▁기억하는데	-11.8948
▁말씀드렸던	-11.8953
▁측에서	-11.8954
▁괜찮았는데	-11.8954
▁남사친	-11.8957
▁눈치가	-11.8957
▁행복이	-11.8958
하려	-11.8961
▁아쉽기	-11.8961
▁바다에서	-11.8962
▁국민들이	-11.8962
▁조사를	-11.8964
▁썰어	-11.8964
▁그러더니	-11.8964
▁파주	-11.8965
▁애한테	-11.8967
▁내향적인	-11.8967
▁고속도로	-11.8968
▁스킨	-11.8969
▁고맙다	-11.8969
▁분식	-11.8971
▁잘했다	-11.8971
▁보냈는데	-11.8978
▁식재료	-11.8978
▁셔츠	-11.8978
▁귀걸이	-11.8978
▁따지면은	-11.8979
▁사이트에서	-11.8979
▁문어	-11.8983
▁케이크가	-11.8983
▁당분간	-11.8988
▁꾸미	-11.8988
▁헤어질	-11.8989
▁클릭	-11.8989
▁속상해	-11.899
▁녹차	-11.8991
▁환승을	-11.8991
▁전략	-11.8992
▁갔거든요	-11.8993
▁확정	-11.8994
▁형님은	-11.8994
▁식구가	-11.8995
▁에어프라이어	-11.8999
▁비중을	-11.8999
▁낫겠다	-11.9001
보면서	-11.9002
▁문득	-11.9002
▁까먹었	-11.9003
▁비슷하다고	-11.9004
▁이동하는	-11.9004
▁대통령이	-11.9006
▁피곤하고	-11.9009
▁맞으니까	-11.9012
▁많아질	-11.9014
▁통일	-11.9014
▁형성이	-11.9018
▁중심으로	-11.9018
▁아쉽고	-11.9022
▁행복할	-11.9024
달까	-11.9025
▁수요가	-11.9025
▁평생을	-11.9026
▁위험이	-11.903
▁생각나고	-11.9031
▁맛집이라고	-11.9031
었다는	-11.9032
▁자기네들이	-11.9033
▁감사하고	-11.9035
▁시원하고	-11.9037
▁스마트워치	-11.9041
▁돌아올	-11.9042
▁두렵	-11.9042
▁들어간다	-11.9044
▁규모가	-11.905
▁습관을	-11.9051
살인데	-11.9052
보드	-11.9056
▁조심스럽	-11.9058
▁조그마한	-11.906
▁착하고	-11.9061
▁수수료	-11.9062
▁말하니까	-11.9063
▁늘었	-11.9065
▁싶고요	-11.9067
▁내려왔	-11.9068
▁놓아	-11.9068
▁계획하고	-11.9071
▁믿음이	-11.9072
▁온전히	-11.9072
▁멈춰	-11.9072
▁초창기	-11.9072
더구먼	-11.9073
▁염증	-11.9074
▁학생들을	-11.9076
▁제주도로	-11.9076
▁예쁘더라고	-11.9081
▁먹거든요	-11.9082
쎄	-11.9082
▁유아	-11.9082
▁둘레길	-11.9083
▁바뀌지	-11.9083
▁올바른	-11.9083
▁계약을	-11.9084
▁골든	-11.9085
▁선생님들도	-11.9087
▁창피	-11.9088
셨고	-11.9089
▁합법	-11.9091
▁워킹	-11.9094
▁누릴	-11.9095
▁배우면	-11.9099
▁공통점	-11.91
▁그때쯤	-11.91
이어도	-11.9101
▁시원	-11.9101
▁훌륭한	-11.9104
▁달팽이	-11.9104
▁편하니까	-11.9104
▁비행	-11.9108
▁목포	-11.9111
▁친해져	-11.9113
▁먹진	-11.9115
▁생긴다면	-11.9116
▁살펴보	-11.912
▁발라드를	-11.912
▁작동	-11.9121
접시	-11.9121
▁완화	-11.9121
였다고	-11.9124
▁시켰는데	-11.9125
콩	-11.913
▁그렇거든	-11.9137
▁식욕	-11.9138
▁연휴	-11.9139
▁것보단	-11.9141
하되	-11.9141
▁병원은	-11.9142
▁관련한	-11.9142
▁보세	-11.9144
▁하나밖에	-11.9145
하셨고	-11.9146
▁궁금하기	-11.9147
원이야	-11.9148
▁술자리	-11.9151
▁당장에	-11.9152
▁슬리퍼	-11.9157
▁환기	-11.9157
▁분야를	-11.9157
▁부분들에	-11.9159
▁그거밖에	-11.916
▁공복	-11.9161
▁가르	-11.9162
일수록	-11.9166
▁필요해서	-11.9166
▁생겼잖아	-11.9167
▁트럭	-11.9168
▁않겠지만	-11.917
▁대회를	-11.9171
▁전기를	-11.9172
▁가수의	-11.9172
▁겪었	-11.9176
▁중이에요	-11.9177
▁어렵더라고요	-11.9178
▁가성비가	-11.9179
▁맛에	-11.9184
▁차이를	-11.9187
▁행사가	-11.9187
▁재활용	-11.9187
▁발음	-11.9187
▁레스토랑	-11.9188
▁이디엠	-11.9188
▁그것들을	-11.9191
▁강아	-11.9193
▁코코	-11.9195
▁신분	-11.9196
▁따로따로	-11.9199
▁발휘	-11.92
배로	-11.9204
▁손흥민이	-11.9207
▁포터	-11.9212
▁소식을	-11.9214
▁열려	-11.9216
▁점에서는	-11.9217
▁왔더라고	-11.9218
▁생명이	-11.9219
▁친구처럼	-11.922
▁즐거움을	-11.922
▁이태원	-11.9221
▁변하고	-11.9225
▁감독님	-11.9229
▁드러	-11.923
▁안타까워	-11.9231
▁상태고	-11.9232
▁밤을	-11.9234
▁치매에	-11.9235
▁언급	-11.9236
▁피자를	-11.9237
▁되었던	-11.9241
▁키우면은	-11.9242
▁교통편	-11.9242
▁부정적이	-11.9243
▁직원들이	-11.9247
▁다니게	-11.9248
▁잡지	-11.9248
▁알지만	-11.9249
▁대인	-11.9249
▁유명하고	-11.925
▁아픔	-11.9254
▁늘어난	-11.9254
▁저와	-11.9257
▁구조가	-11.9257
▁배우기	-11.9259
▁우울해	-11.926
▁마트를	-11.9261
▁자기소개서	-11.9263
▁조상	-11.9264
▁행사를	-11.9265
▁400	-11.9266
▁사이드	-11.9267
▁읽었던	-11.9273
▁트롯	-11.9274
▁문신	-11.9275
▁깨끗하	-11.9277
▁지속적으로	-11.9279
▁편해지	-11.9279
번인가	-11.9284
▁밀고	-11.9285
▁바꾸면	-11.9286
▁났었	-11.9287
▁범인	-11.9293
셰	-11.9294
낀	-11.9295
▁목요일	-11.9296
▁뻔한	-11.9301
▁성악	-11.9301
▁아프니까	-11.9304
▁때쯤에	-11.9304
▁걸러	-11.9305
▁찾아오	-11.9305
▁단편	-11.9308
▁꺼내서	-11.931
▁기억들이	-11.931
▁예쁘다고	-11.9312
▁연습하고	-11.9315
▁현실에서	-11.9315
▁명소	-11.9316
▁폰을	-11.9319
▁보이더라고요	-11.9321
▁위로를	-11.9324
▁후회를	-11.9324
▁오줌	-11.9324
▁남친	-11.9326
▁노트	-11.9326
▁구체적인	-11.9328
▁살았어	-11.9328
▁채널을	-11.9328
▁노란색	-11.9331
▁무섭더라고	-11.9335
▁싶더라	-11.9336
▁효율적으로	-11.9342
▁표현이	-11.9344
▁검증	-11.9345
▁콘텐츠를	-11.9345
▁위험할	-11.9347
▁쪼금이라도	-11.9349
▁엠제트	-11.9349
훅	-11.9349
▁살아온	-11.935
하시지	-11.935
▁45	-11.9355
이었으니까	-11.9355
▁짜증이	-11.9358
었고요	-11.9358
▁당연	-11.9359
▁수록곡	-11.9361
▁뜨면	-11.9361
▁과하게	-11.9367
▁끼어	-11.9368
▁하지마는	-11.937
▁먹어봤는데	-11.9371
▁호르몬	-11.9371
▁페이스북	-11.9371
▁티켓을	-11.9372
▁실패를	-11.9374
▁통화를	-11.9375
▁내용인데	-11.9375
▁발전하는	-11.9376
▁없었지	-11.9379
▁앨범을	-11.9379
▁부르기	-11.9381
▁달달한	-11.9382
▁향상	-11.9383
▁소홀	-11.9385
▁따지는	-11.9385
▁신기하더라고	-11.939
▁알파고	-11.9395
▁해볼	-11.9395
▁하겠는데	-11.9396
▁집안에서	-11.9397
▁통신	-11.9397
▁들자면	-11.9397
▁헤어진	-11.94
▁좋아한단	-11.9401
▁증상	-11.9402
▁싶으니까	-11.9404
▁이끌	-11.9405
▁시선이	-11.9406
▁졸업할	-11.9412
뱉	-11.9415
▁여럿이	-11.9415
▁상대방을	-11.9415
▁현금으로	-11.9417
▁고백	-11.942
▁레시피를	-11.9422
▁옷장	-11.9423
으셔서	-11.9424
됐던	-11.9425
년인가	-11.9425
시키	-11.9429
▁석사	-11.943
▁자료를	-11.9432
▁조기	-11.9433
▁누르면	-11.9436
▁대상이	-11.9436
▁유모차	-11.9436
▁되려면	-11.9437
▁사람인지	-11.9439
▁있더라도	-11.9443
▁투입	-11.9443
▁조심하	-11.9445
▁쳐다보고	-11.9447
▁쓰여	-11.945
▁맞았어	-11.945
▁일상생활에서	-11.9457
▁핵심	-11.9457
뭇	-11.9458
뜸	-11.9458
▁분담	-11.9461
▁있겠다라는	-11.9463
▁빠지게	-11.9464
▁들잖아	-11.9465
▁혈액형이	-11.9467
▁신중	-11.9467
▁투기	-11.9469
▁언젠간	-11.9469
▁충동	-11.9474
켜	-11.9474
▁방송국	-11.9476
▁지내면서	-11.9478
▁밸런스	-11.948
▁춤추는	-11.948
▁만들지	-11.948
▁카톡으로	-11.948
▁반려동물은	-11.9481
▁영화관을	-11.9481
았어요	-11.9484
▁보건	-11.9487
게임	-11.9487
▁자부심	-11.9491
▁아쉽더라고	-11.9493
▁신나게	-11.9494
▁얘기하지	-11.9495
▁체력적으로	-11.9495
▁저녁은	-11.9499
▁대중교통은	-11.95
▁중요하잖아	-11.9501
▁비용적인	-11.9502
월부터	-11.9503
▁추천드리고	-11.9503
▁소스를	-11.9506
▁편인가요	-11.9506
▁티브이나	-11.9508
▁단절	-11.9509
▁힘들다는	-11.9513
▁모른	-11.9514
답니다	-11.9514
▁걔네들도	-11.9515
▁좋아져서	-11.9519
▁지브리	-11.952
믹	-11.9522
▁남들보다	-11.9522
▁표현할	-11.9523
▁반찬을	-11.9524
▁아바타	-11.9524
▁렌즈	-11.9524
▁방콕	-11.9525
▁정리해	-11.9526
▁세워서	-11.953
▁싶다면	-11.953
▁부분인데	-11.9532
▁왔거든요	-11.9532
▁주사를	-11.9532
바리	-11.9534
▁쓸모	-11.9534
▁먹기는	-11.9534
▁엊그제	-11.9535
▁미쳤	-11.9535
▁몰랐지	-11.9535
▁서운해	-11.9536
▁만났어	-11.9536
▁이자가	-11.954
▁싸니까	-11.9541
▁중이고	-11.9541
▁소독	-11.9542
▁에스엔에스에	-11.9542
▁사상	-11.9544
▁끝나면은	-11.9544
▁틱톡	-11.9546
▁27	-11.9546
▁정리하고	-11.9547
▁흘러가	-11.9549
▁끼워	-11.9551
▁양반	-11.9551
▁됐었어	-11.9551
▁미팅	-11.9552
▁소화가	-11.9554
펀	-11.9556
▁가능하다	-11.9556
▁그곳에서	-11.9556
▁선임	-11.9557
▁맥락	-11.9558
▁스시	-11.9558
▁기기를	-11.9559
▁방안을	-11.9559
▁많아져서	-11.956
▁맞죠	-11.9561
▁모르겠습니다	-11.9562
▁유명하지	-11.9566
▁혈압이	-11.9567
붐	-11.9572
▁약국	-11.9572
▁공감하는	-11.9574
▁메고	-11.9576
▁이러잖아	-11.9579
리스트	-11.958
▁실감	-11.9583
▁취업할	-11.9583
▁재테크에	-11.9583
▁다르겠지만	-11.9583
▁과장	-11.9585
▁미래가	-11.9586
았다고	-11.9586
▁심했	-11.959
▁고것	-11.9591
▁보이잖아	-11.9593
케이크	-11.96
▁느꼈어요	-11.9602
▁친하지	-11.9603
이었지만	-11.9608
▁없겠다	-11.9612
▁거부감	-11.9612
▁합리적인	-11.9612
▁인연이	-11.9613
▁돌아갈	-11.9615
▁알뜰	-11.9615
▁외향	-11.9621
▁목적지	-11.9622
앵	-11.9624
시키려고	-11.9624
▁공감해	-11.9626
▁수익률	-11.9628
▁상처가	-11.9628
▁라이프	-11.963
▁얘기하면은	-11.9631
된다는	-11.9633
▁상대방의	-11.9633
▁기준은	-11.9634
▁비벼	-11.9639
▁박수	-11.9642
▁높아지고	-11.9643
▁교회에서	-11.9643
▁떨어졌다	-11.9647
▁만나다	-11.9647
▁갔지만	-11.9648
▁측면이	-11.9648
▁저렴	-11.965
▁보급	-11.9652
▁해보니까	-11.9655
▁아닙니다	-11.9657
▁쪼끄마한	-11.9657
▁엑셀	-11.9657
▁오페라	-11.9657
▁제조	-11.9658
▁대놓고	-11.9658
▁주례	-11.9659
▁제철	-11.9664
▁실용	-11.9665
▁야생	-11.9665
▁거실에	-11.9666
▁신발은	-11.9666
▁돌아와서	-11.9666
▁의미로	-11.9667
▁딱딱한	-11.9667
▁투명	-11.9668
▁수강	-11.9668
▁비주얼	-11.9668
▁살았으면	-11.9671
▁있대요	-11.9673
▁통합	-11.9673
▁놓지	-11.9674
▁피부에	-11.9674
▁시중에	-11.9675
▁감정적인	-11.9675
▁타려고	-11.9677
▁심하고	-11.9678
▁고속	-11.9681
▁부모의	-11.9681
▁메시	-11.9682
▁감염	-11.9682
렴	-11.9683
▁흘러가는	-11.9686
▁연예인은	-11.9688
▁화해	-11.9688
▁관련해	-11.9689
▁발전하고	-11.969
갱	-11.969
▁여하튼	-11.969
▁누군가는	-11.9691
▁개미	-11.9691
▁받아들이고	-11.9692
▁답을	-11.9692
▁대리님	-11.9693
▁외로	-11.9693
▁받았거든	-11.9695
▁좋아하나	-11.9695
▁시간적인	-11.9695
타운	-11.9696
▁옛날보다	-11.9696
▁같았는데	-11.9701
▁히어로	-11.9702
▁적립	-11.9705
▁돌리면	-11.9706
꿈	-11.971
▁영화배우	-11.9713
▁테이프	-11.9714
▁내보내	-11.9714
▁안락사는	-11.9714
▁운전할	-11.9717
▁플라	-11.9717
▁관리하고	-11.9719
▁많아지면	-11.9721
▁미안하다	-11.9722
▁달래	-11.9722
▁애완견	-11.9725
▁믹스	-11.9726
▁돌아가셔	-11.9726
▁류의	-11.9727
해져서	-11.9731
스턴	-11.9731
웠는데	-11.9732
▁도중에	-11.9733
▁투자하고	-11.9733
▁랩을	-11.9735
댈	-11.9735
할게요	-11.9736
▁새롭	-11.974
▁나가는데	-11.9743
▁사랑해	-11.9746
우면서	-11.9747
으라	-11.9747
▁토스	-11.9751
▁보장이	-11.9754
짠	-11.9756
▁마찬가지야	-11.9756
▁진로에	-11.9757
▁테니스를	-11.9757
▁바쁘다	-11.9758
▁줄거리	-11.9761
▁적성	-11.9762
▁차리고	-11.9764
▁얘기하더라고	-11.9768
▁멋지	-11.9769
▁관념	-11.977
하셔야	-11.977
▁사항이	-11.9771
▁의논	-11.9771
▁파는데	-11.9772
▁셀프	-11.9773
▁싶으	-11.9775
마리는	-11.9778
▁내려와서	-11.9779
▁위드	-11.9782
▁비중이	-11.9784
▁단어가	-11.9784
▁전력	-11.9786
▁집이랑	-11.9789
▁만들었다	-11.9791
▁전자레인지	-11.9792
▁꼽자면	-11.9792
이었기	-11.9792
▁그랬었잖아	-11.9793
▁어울린다	-11.9794
▁가능하면	-11.9796
▁문상	-11.9797
▁아쉽지	-11.9797
▁사용한	-11.9801
▁그러려면	-11.9804
▁그렇군요	-11.9804
▁건물을	-11.9809
▁마취	-11.9809
▁시국이	-11.9813
▁이민	-11.9817
▁들어가는데	-11.9818
▁싸지	-11.9818
▁일박	-11.9823
▁홍보를	-11.9825
▁고지혈증	-11.9826
▁아이언맨	-11.9826
뛸	-11.9826
▁코믹	-11.9826
▁갈아서	-11.9827
▁걸어야	-11.9827
▁애매해	-11.9828
▁생기더라고	-11.9828
60	-11.9829
▁지나갈	-11.9829
▁진심으로	-11.983
▁가끔가다	-11.983
▁공모주	-11.9837
▁돌아간다	-11.9838
뭐	-11.984
▁호랑이	-11.9841
봐야겠다	-11.9843
▁활발하게	-11.9845
▁들었었어	-11.9846
▁맞더라고	-11.9846
▁이모는	-11.9848
▁인정해	-11.9849
▁맞으면은	-11.9849
▁접하는	-11.985
▁멀어서	-11.985
▁고민하는	-11.9851
▁쌤은	-11.9852
▁사라지고	-11.9852
▁않겠어	-11.9853
▁타고난	-11.9854
페이지	-11.9856
▁브랜	-11.9856
▁예비	-11.9856
▁버틸	-11.986
▁힘들겠다	-11.9863
▁아직까진	-11.9864
▁해결하는	-11.9867
▁무계획	-11.9871
▁종로	-11.9872
▁재택근무를	-11.9874
▁종목을	-11.9874
▁생기면서	-11.9875
▁사귀었	-11.9875
▁대학로	-11.9876
▁리뷰를	-11.9876
▁연말에	-11.9877
▁사가지고	-11.9878
▁트램	-11.9883
▁부천	-11.9885
▁잘되고	-11.9885
▁그러죠	-11.9886
▁길어서	-11.9886
▁조화	-11.9887
▁받았다	-11.9888
▁타다가	-11.9892
▁스티커	-11.9894
깁	-11.9894
▁곤충	-11.9895
▁손톱	-11.9896
▁연극을	-11.9896
▁딸하고	-11.9897
▁35	-11.9898
리터	-11.9899
▁피부과	-11.99
▁주자	-11.9901
하셨는지	-11.9902
▁비전	-11.9902
▁나오다	-11.9903
▁구경하는	-11.9906
▁현관	-11.9906
▁않는다면	-11.9909
되었으면	-11.991
▁교사가	-11.991
▁한다라고	-11.9911
▁이루어진	-11.9913
▁무대를	-11.9913
▁29	-11.9914
였지만	-11.9915
킥	-11.9917
닐	-11.9917
▁스케일	-11.9917
▁지자체	-11.9917
▁베이킹	-11.9917
▁비록	-11.9917
▁제습기	-11.9917
▁당하고	-11.9917
명인데	-11.9921
▁고칠	-11.9921
▁그것보다는	-11.9921
▁치유	-11.9923
▁중입니다	-11.9923
▁주말마다	-11.9923
▁두산	-11.9924
▁동생한테	-11.9925
▁날짜를	-11.9925
▁와라	-11.9926
▁지역의	-11.9926
▁기준에	-11.9927
녕	-11.9928
▁편해서	-11.9929
▁오일	-11.9929
▁보실	-11.9931
▁갔었거든요	-11.9933
▁내린	-11.9937
쌩	-11.994
▁골드	-11.994
▁전동	-11.9941
▁진정한	-11.9942
▁프로그램들	-11.9943
▁싶거든요	-11.9945
븐	-11.9946
▁컨디션	-11.9946
▁만화를	-11.9947
▁남았는데	-11.9948
▁소통이	-11.995
▁요구하는	-11.9951
▁뛰어놀	-11.9951
▁충실	-11.9953
▁발달이	-11.9955
▁인터	-11.9955
▁여쭤보	-11.9956
▁미련	-11.9956
보니	-11.9961
▁체력을	-11.9961
▁자란	-11.9961
숏	-11.9963
▁품종	-11.9964
▁잘하는데	-11.9964
▁가보면	-11.9965
▁지원금	-11.9967
방송	-11.9971
▁비난	-11.9971
▁들리고	-11.9971
하겠지만	-11.9972
▁고전	-11.9972
▁이익	-11.9974
▁보라카이	-11.9974
▁날아가	-11.9975
눌	-11.9982
▁만큼의	-11.9982
▁쓰레기를	-11.9984
▁퍼포먼스	-11.9986
▁챙길	-11.9986
▁화면이	-11.9986
▁우울한	-11.9986
략	-11.9991
▁목숨	-11.9992
▁효과는	-11.9993
▁가족들은	-11.9994
▁배송비	-11.9995
▁좋겠는	-11.9995
렬	-11.9996
▁편한데	-11.9996
▁하겠더라고	-11.9997
▁귀여웠	-11.9997
▁알려줄	-11.9999
▁어떠냐	-12.0001
하려니까	-12.0002
▁외국인들이	-12.0002
▁너에게	-12.0004
라곤	-12.0005
▁아기들이	-12.0006
▁상관없어	-12.0009
▁연하	-12.0009
▁넓어지	-12.0012
▁필요성을	-12.0013
▁전체를	-12.0017
▁형편	-12.0017
랍	-12.0017
▁수육	-12.0018
▁아쉬움	-12.0019
▁중요하니까	-12.002
▁비즈니스	-12.002
▁국악	-12.0025
▁비슷비슷	-12.0028
▁감동이	-12.0029
▁중국인	-12.003
▁후로	-12.0032
샷	-12.0032
▁좋으시	-12.0032
▁완벽한	-12.0033
▁증권	-12.0036
▁병역	-12.0037
역까지	-12.0037
▁결정하는	-12.004
▁얘기들을	-12.004
▁다행이다	-12.004
▁지하철로	-12.004
▁편리	-12.0043
▁사기를	-12.0043
레이션	-12.0044
▁근래에	-12.0047
깨	-12.0047
▁비슷하지	-12.0049
▁돌이켜	-12.0055
▁전자기기	-12.0056
▁한식을	-12.0056
▁부분으로	-12.0057
▁비슷할	-12.0057
▁정체	-12.0059
▁키웠을	-12.006
▁붙었	-12.0062
▁상황들이	-12.0064
▁입혀	-12.0067
▁공유를	-12.0067
▁독특한	-12.0067
▁생겼으면	-12.0067
▁재래시장	-12.0067
▁어떠신가요	-12.0067
▁빵빵	-12.0069
▁어어어	-12.007
▁주목	-12.0071
▁가잖아요	-12.0072
▁분당	-12.0078
▁호날두	-12.0078
▁깨끗해	-12.0078
▁지난주에	-12.0079
▁냄비	-12.008
▁보이기	-12.0081
▁아쉽게도	-12.0082
▁아픈데	-12.0084
▁아침부터	-12.0088
▁멤버들이	-12.0089
▁케이블카	-12.0091
▁한국에서는	-12.0091
▁지나갔	-12.0092
▁소문이	-12.0093
▁살아야지	-12.0095
▁아쉬웠어	-12.0096
▁식비	-12.0098
▁뭐였더라	-12.0098
팡	-12.0102
▁실시간으로	-12.0102
▁엘에이	-12.0102
맘	-12.0108
▁녹아	-12.0109
▁무지개	-12.0109
▁행동하는	-12.0111
▁것들로	-12.0117
▁관심사	-12.0119
▁동화	-12.0119
▁사용하기	-12.0119
▁엠시	-12.0124
▁유료	-12.0124
▁시드	-12.0124
▁좋아져	-12.0124
▁지하상가	-12.0125
▁챙겨주고	-12.0128
▁당기는	-12.0129
찍	-12.013
▁리스크	-12.0131
엄마	-12.0131
▁채우고	-12.0131
▁자긴	-12.0132
백화점	-12.0134
▁기사님들	-12.0136
▁일산	-12.0137
▁노래방에서	-12.0137
▁담겨	-12.0138
램	-12.0139
▁생생	-12.014
▁어리니까	-12.014
▁실습을	-12.0148
▁카페나	-12.0149
▁불편하더라고	-12.0149
한다든가	-12.0152
▁소변	-12.0154
▁해줘	-12.0155
▁직업군	-12.0156
▁마련해	-12.0156
▁감정적으로	-12.0159
▁어린애들	-12.0161
▁형제가	-12.0162
▁반려견을	-12.017
▁해보는	-12.0171
▁보냈던	-12.0172
▁데려온	-12.0173
▁이기적인	-12.018
▁살았었	-12.018
▁풀리고	-12.0181
▁전교	-12.0181
▁그래픽	-12.0184
▁전화해서	-12.0186
▁맛있거든	-12.0189
▁야자를	-12.0189
▁공존	-12.0189
▁생각했었는데	-12.019
▁최소한의	-12.0191
▁물고기를	-12.0192
▁후기를	-12.0194
툭	-12.0195
▁두루두루	-12.0195
▁미끄러	-12.0195
▁서운한	-12.0196
▁좋았다고	-12.0199
▁걱정하는	-12.02
▁움직여야	-12.0203
▁키운다면	-12.0204
▁시작되	-12.0206
▁이티에프	-12.0207
▁닥터	-12.0208
▁입장에선	-12.0209
▁가꾸	-12.0209
▁지수	-12.0209
▁생각입니다	-12.021
▁카트	-12.0211
▁좋았었	-12.0212
▁투자해서	-12.0213
▁정비	-12.0214
▁불가능하	-12.0216
▁들어봤어	-12.0219
▁발표를	-12.0221
드리겠습니다	-12.0221
▁망원	-12.0222
▁적합	-12.0224
▁단어를	-12.0225
▁화내	-12.0227
▁얼마씩	-12.0227
▁성분	-12.023
▁승부	-12.0231
▁소원	-12.0232
▁그다음부터는	-12.0233
▁위험하다고	-12.0234
▁직장인들	-12.0236
▁경영학과	-12.0236
▁끝나서	-12.0237
구먼	-12.0238
▁운동하면서	-12.0243
▁두려움이	-12.0244
▁노후에	-12.0244
▁석유	-12.0245
▁대중적인	-12.0247
▁비슷하고	-12.0247
▁마주치	-12.0248
▁부스	-12.0253
▁시절에는	-12.0254
▁파일	-12.0255
▁다룰	-12.0256
▁되돌아	-12.0256
▁전투	-12.0259
▁보려	-12.0259
▁준대	-12.0259
▁갔었어요	-12.0262
▁상해	-12.0263
▁짱구	-12.0264
▁조별	-12.0265
▁넘으면	-12.0266
▁일반인들	-12.0266
▁자체로	-12.0266
▁시작하기	-12.0274
▁아까워	-12.0276
▁떨어진다	-12.0278
▁고치고	-12.028
▁게을러	-12.0284
▁알바하면서	-12.0285
▁지르고	-12.0289
▁눈앞에	-12.029
▁좋아했어요	-12.0292
▁대처를	-12.0293
▁몰랐어요	-12.0296
▁취지	-12.0296
▁숨기	-12.0298
▁임산부	-12.0298
▁소외	-12.0298
▁좋던데	-12.0299
▁스킬	-12.03
▁부츠	-12.0301
▁기다릴	-12.0302
▁자세를	-12.0303
▁집안일을	-12.0304
▁벽에	-12.0305
▁따라갈	-12.0306
▁다녀왔는데	-12.0308
▁재작년에	-12.0308
▁명예	-12.0314
▁캐리어	-12.0314
▁가까워서	-12.0315
▁부르는데	-12.0316
▁상담사	-12.0318
▁책으로	-12.032
▁때리고	-12.0322
웰	-12.0326
▁깨달았	-12.0326
▁그만둔	-12.0326
▁간절	-12.0331
▁육류	-12.0333
▁싫어하는데	-12.0334
▁되겠더라고	-12.0334
▁엄만	-12.0336
▁것만큼	-12.0336
▁충돌	-12.0336
▁길거리에	-12.0337
▁경험들이	-12.0337
▁가져다	-12.0338
▁오뎅	-12.0338
▁비숑	-12.0338
▁있었다면	-12.0339
▁고래	-12.034
▁이해하는	-12.0341
▁전세를	-12.0342
▁복장	-12.0343
▁맛있었는데	-12.0344
▁생성	-12.0344
▁계통	-12.0345
▁잔인한	-12.035
▁생기게	-12.035
▁연구원	-12.0353
▁무난	-12.0354
▁이른	-12.0356
▁있겠는데	-12.0357
▁불과	-12.036
▁참석을	-12.0361
짬	-12.0362
▁징병제	-12.0362
돕	-12.0362
▁남아있	-12.0362
▁유학을	-12.0363
▁실제적으로	-12.0367
▁매너	-12.0368
▁건조기를	-12.0369
▁가능하다고	-12.0369
▁후배들	-12.037
▁헬스장에	-12.0371
▁갈리는	-12.0371
▁맥북	-12.0374
▁떠서	-12.0375
▁있었다는	-12.0376
▁명확하게	-12.0378
▁차분하	-12.0378
▁너와	-12.0379
▁효도	-12.0381
즌	-12.0383
▁지나가면서	-12.0383
눅	-12.0386
▁확진자	-12.0386
▁싶었어요	-12.0387
▁괴물	-12.0391
▁무엇인가	-12.0394
▁채식	-12.0396
▁공부해야	-12.0399
▁해외여행은	-12.04
▁청구	-12.0405
뮤	-12.0405
▁재활	-12.0405
마저도	-12.0408
▁의사들이	-12.0409
▁마카롱	-12.041
▁알아봤는데	-12.041
▁폐쇄	-12.041
▁지향	-12.0414
▁역사를	-12.0414
▁공감대	-12.0415
▁족발집	-12.0415
힘	-12.0416
▁전세로	-12.0417
▁넷플릭스나	-12.0417
▁이용하지	-12.0422
▁빨아	-12.0426
▁생기잖아	-12.0427
▁사라진	-12.0427
▁프라이드	-12.0427
줍	-12.0428
▁부모들이	-12.0431
▁본격적으로	-12.0434
▁리듬	-12.0435
했더니	-12.0437
▁계신데	-12.0437
▁냉동실에	-12.044
▁재미있었	-12.0442
▁극장에서	-12.0442
▁구매하고	-12.0442
▁동계	-12.0444
같	-12.0444
▁체중이	-12.0445
▁김해	-12.0448
▁말씀하셨	-12.0448
일인가	-12.0452
▁공부해서	-12.0453
▁말이죠	-12.0454
▁쇼미	-12.0457
▁외삼촌	-12.0458
▁포트폴리오	-12.0458
뺑	-12.0458
▁피드백	-12.0458
▁교과서	-12.0458
▁이케아	-12.0458
▁존엄사를	-12.0458
▁말씀하셨듯이	-12.0458
▁대학생들	-12.046
▁필터	-12.0462
▁잘못하면	-12.0462
▁개방	-12.0466
▁노동자	-12.0466
▁담에	-12.0467
▁간다거나	-12.0469
▁옷들을	-12.0469
▁김혜수	-12.047
▁형편이	-12.0472
▁공군	-12.0472
▁넘어가서	-12.0472
▁화목	-12.0478
▁지니	-12.0479
▁시작했어	-12.0481
▁기숙사에	-12.0481
괄	-12.0482
▁실력을	-12.0482
▁마포	-12.0484
▁교회를	-12.0485
▁마인드가	-12.0486
▁흔한	-12.0486
▁보건소	-12.0487
▁한국인들	-12.0489
이었습니다	-12.0489
▁물건들이	-12.049
▁특이하게	-12.049
▁풍력	-12.0491
하셨을	-12.0493
뇌	-12.0493
▁사이즈를	-12.0494
▁오락	-12.0494
▁훌륭하	-12.0494
▁길에서	-12.0495
▁갖지	-12.0496
▁한마디로	-12.0499
▁좋구나	-12.0499
질까	-12.0501
▁임영웅이	-12.0501
▁세계적인	-12.0501
▁회화	-12.0503
▁미래의	-12.0503
▁혼자만의	-12.0505
▁수학여행을	-12.0506
▁스파이더맨	-12.0506
▁울면서	-12.0506
▁호응	-12.0508
▁엔딩	-12.0508
▁범죄도시	-12.0508
▁않았기	-12.0517
▁산책하는	-12.0517
▁옥수수	-12.0518
▁민망	-12.052
하시다	-12.052
▁머신	-12.0521
▁대화할	-12.0522
▁빚을	-12.0524
▁투어를	-12.0525
▁급행	-12.0525
▁육지	-12.0528
▁쪼그만	-12.0529
▁자존심	-12.0531
▁외적인	-12.0532
시네요	-12.0532
▁기술력	-12.0533
▁가봐	-12.0534
▁탄다	-12.054
▁외로움을	-12.0542
빡	-12.0542
▁서울역	-12.0542
▁계획적으로	-12.0542
▁스쿠버	-12.0543
▁만족스럽	-12.0545
스쿨	-12.0547
▁일하시는	-12.0548
▁팀플	-12.0549
순위가	-12.0549
▁핫한	-12.0549
▁숨겨	-12.0551
▁미션	-12.0551
▁졸업한	-12.0551
▁따르는	-12.0552
▁모아야	-12.0553
▁종사	-12.0555
▁보증금	-12.0555
▁착각	-12.0556
▁이겨내	-12.0557
▁항공사	-12.0559
▁반대야	-12.0559
▁만들었던	-12.0559
▁어쩌고	-12.056
▁발리	-12.0561
▁주어지	-12.0561
▁입장은	-12.0562
▁행복했	-12.0562
▁시급이	-12.0563
▁기회에	-12.0565
▁왓챠	-12.0567
얕	-12.0567
횡	-12.0567
▁슬픔	-12.0567
▁성질	-12.0569
▁단축	-12.0572
▁세척	-12.0572
▁실장님	-12.0574
▁오래돼	-12.0574
▁죄송	-12.0577
▁부모님께	-12.0578
▁인재	-12.0579
▁놀랍	-12.058
▁심리학	-12.0581
▁오르면	-12.0584
▁장마	-12.0587
주려고	-12.0588
▁1500	-12.0588
▁그랬었던	-12.0591
▁팁을	-12.0591
▁사라지는	-12.0594
▁땐데	-12.0596
▁심정	-12.0599
▁알아보니까	-12.0602
▁단양	-12.0602
▁직전에	-12.0603
▁요금제	-12.0604
▁충청도	-12.0604
▁누나들	-12.0604
▁싶으세요	-12.0605
▁공인	-12.0606
했음	-12.0607
휘	-12.061
▁이어지	-12.0612
카페	-12.0612
▁비추	-12.0612
▁스토어	-12.062
▁경연	-12.062
▁가족들한테	-12.0621
▁자체에서	-12.0621
▁규제가	-12.0624
▁담아서	-12.0625
▁관리해	-12.0625
▁리트리버	-12.0628
덩어리	-12.0629
▁마라톤	-12.0629
▁개강	-12.0629
▁해결책	-12.063
▁서민들	-12.0631
▁맞기	-12.0632
▁힘들더라	-12.0633
▁어렵긴	-12.0633
▁출근할	-12.0633
▁전화해	-12.0634
▁제품들이	-12.0634
▁쉬면서	-12.0635
▁알겠습니다	-12.0637
▁생각났	-12.0638
▁주체	-12.0638
▁부럽기도	-12.0639
▁창고	-12.0641
▁봐야겠네	-12.0642
▁끌리는	-12.0642
▁기반으로	-12.0642
▁심장이	-12.0643
▁피겨	-12.0646
학원	-12.065
▁기침	-12.065
▁감독의	-12.0652
▁대본	-12.0653
▁시외버스	-12.0653
치고는	-12.0653
▁이율이	-12.0654
▁고마웠	-12.0654
▁세대들이	-12.0656
▁걱정하지	-12.0656
▁달라요	-12.0657
▁장소에서	-12.0658
▁나와가지고	-12.0661
▁인문계	-12.0665
▁복합	-12.0669
▁장사가	-12.0671
공항	-12.0674
▁이어지는	-12.0677
▁챔피언	-12.0678
▁치르	-12.0678
▁왔었어	-12.0681
▁들어왔을	-12.0682
▁이용하기	-12.0684
▁숨이	-12.0685
멜	-12.0687
▁효율이	-12.0689
▁트러블	-12.0692
▁표정이	-12.0694
▁햄스터를	-12.0695
▁특정한	-12.07
▁빼서	-12.0701
▁유니폼	-12.0702
▁배낭여행	-12.0703
▁놀리	-12.0707
▁붙어서	-12.0708
▁감사하게	-12.0709
▁캠핑장	-12.071
▁월세를	-12.0711
▁전신	-12.0711
▁여행사	-12.0711
▁집중력	-12.0711
▁한복을	-12.0713
▁결말이	-12.0715
▁패스트푸드	-12.0715
▁실무	-12.0718
준다든가	-12.0722
▁아니었지만	-12.0723
▁원인이	-12.0725
▁부족하다	-12.0727
▁만족하는	-12.0727
뻗	-12.0727
▁따뜻해	-12.0727
친다고	-12.0728
▁달성	-12.0729
▁포함이	-12.073
▁여성분들	-12.0731
▁전단지	-12.0732
▁남미	-12.0737
▁채권	-12.0738
▁갔단	-12.0738
▁전까지만	-12.0738
▁웬만해서	-12.074
쉰	-12.074
▁매력적인	-12.0741
▁정해야	-12.0744
▁나타나는	-12.0745
▁뉴스로	-12.0747
▁부실	-12.075
▁스토리를	-12.0751
▁샴푸	-12.0752
▁모르거든	-12.0753
▁어색한	-12.0758
▁이상형은	-12.0758
▁날리는	-12.0759
▁공장에서	-12.0759
▁쓰긴	-12.0761
▁관리자	-12.0765
▁냄새를	-12.0766
▁사이트를	-12.0766
▁기안	-12.0769
▁바뀌어야	-12.077
▁부품	-12.0771
▁맛으로	-12.0772
▁소방	-12.0772
밴	-12.0773
▁열한	-12.0775
▁아이디	-12.0776
똥	-12.078
▁생리	-12.0781
▁다르구나	-12.0782
▁시간표	-12.0782
▁단점이라고	-12.0783
▁작년부터	-12.0784
▁되었어요	-12.0785
▁언론사	-12.0786
분들이랑	-12.0787
▁떨어졌어	-12.0788
▁보유	-12.0789
▁미스터트롯	-12.079
▁하나라도	-12.0792
▁이러더라고	-12.0793
▁잘했다고	-12.0795
▁편이세요	-12.0795
▁점들이	-12.0796
▁휴게소	-12.0802
▁운동선수	-12.0802
▁향후	-12.0803
▁대다수	-12.0803
▁엘피	-12.0803
▁피구	-12.0804
▁오자	-12.0806
▁장수	-12.0807
잖니	-12.0808
▁효율성	-12.0812
▁식초	-12.0813
▁9000	-12.0813
▁죄책감	-12.0815
▁수준으로	-12.0816
▁지나면은	-12.0819
▁말려	-12.0821
륜	-12.0826
▁영화들을	-12.0826
▁관객	-12.0827
▁않겠냐	-12.0828
▁꾸리	-12.0833
▁번째로는	-12.0841
더라구요	-12.0844
▁일본어를	-12.0846
▁버스킹	-12.085
▁금메달	-12.0852
▁쫓아가	-12.0852
▁스카이	-12.0853
▁윗집	-12.0853
▁만나니까	-12.0854
▁글씨	-12.0856
▁그랬잖아요	-12.0856
▁사전에	-12.0857
▁꿀팁	-12.0865
▁사주나	-12.0867
▁신앙	-12.0869
▁진행되는	-12.087
▁그렇다면은	-12.087
▁기대감	-12.0872
▁있었죠	-12.0872
▁키운다	-12.0874
▁쳐야	-12.0875
▁신고를	-12.0875
▁움직이지	-12.0877
▁알던	-12.0881
▁다가오는	-12.0882
▁버리지	-12.0884
▁추억으로	-12.0886
▁화력	-12.0888
▁외로워	-12.0889
▁공부하면서	-12.0889
▁응원하고	-12.089
꼼	-12.089
▁슬기로운	-12.089
쥐	-12.089
라이트	-12.0891
▁안정이	-12.0894
▁여유를	-12.0896
▁육체	-12.0896
▁편이었는데	-12.0896
▁반장	-12.0897
▁들어갔어	-12.0898
▁약자	-12.0902
▁말레이시아	-12.0903
▁바비큐	-12.0903
▁송중기	-12.0903
▁껍질	-12.0904
▁조치	-12.0909
▁대변	-12.091
▁깨어	-12.0911
▁맞을까	-12.0912
▁지나면서	-12.0913
▁잔인하	-12.0913
▁클립	-12.0914
▁차근차근	-12.0915
▁필름	-12.0917
▁감당이	-12.0918
▁기준에서	-12.0918
▁폭행	-12.0919
▁헬스장에서	-12.092
▁접근성이	-12.092
마저	-12.0921
▁걸리니까	-12.0921
▁캐치	-12.0921
▁고향이	-12.0922
▁조식	-12.0923
▁겹치는	-12.0923
▁공연장	-12.0925
해야겠다	-12.0926
됐어	-12.0927
▁해볼까	-12.0928
▁서바이벌	-12.0928
▁잃어버리	-12.0928
▁꼰대	-12.0928
▁오더라고요	-12.093
▁자아	-12.0931
▁않았잖아	-12.0931
▁끼치는	-12.0933
▁잡채	-12.0933
▁로또	-12.0934
▁맞잖아	-12.0934
▁망가지	-12.0934
▁비혼	-12.0934
▁학생들은	-12.0935
▁많았었는데	-12.0937
▁케이비에스	-12.0941
▁장학금	-12.0941
▁출신이	-12.0941
▁버거킹	-12.0941
▁갈비찜	-12.0941
▁질려	-12.0941
▁사이다	-12.0941
▁골랐	-12.0941
▁남들한테	-12.0941
▁직전	-12.0942
▁소장	-12.0944
하구나	-12.0947
▁구직	-12.0949
▁빠져나가	-12.095
▁학기에	-12.095
▁버텨	-12.0953
▁세제	-12.0954
▁잔뜩	-12.0954
▁석탄	-12.0954
▁원체	-12.0956
▁기대되	-12.0959
▁가르치고	-12.0966
▁동유럽	-12.0966
▁생겼고	-12.0966
▁배웠는데	-12.0969
▁일어났을	-12.0971
▁비건	-12.0971
▁어묵	-12.0975
▁자막	-12.0978
▁스타일의	-12.0978
▁권사님	-12.0979
▁시위	-12.0982
▁슬플	-12.0982
져가지고	-12.0983
▁식기	-12.0984
▁동서	-12.0991
▁아프거나	-12.0991
바구니	-12.0992
▁없으신가요	-12.0992
▁배려해	-12.0994
▁필드	-12.0995
▁즐겨보는	-12.0996
놀	-12.0997
▁그렇더라	-12.0997
▁시점이	-12.0997
▁망했	-12.0998
▁반겨	-12.0999
▁인맥	-12.1
▁가을에는	-12.1001
▁맡은	-12.1002
▁레드벨벳	-12.1004
▁부끄럽	-12.1004
▁극단적인	-12.1004
▁번거롭	-12.1004
▁까다롭	-12.1005
▁거꾸로	-12.1005
▁판사	-12.1008
▁계획적인	-12.1009
▁표현의	-12.101
▁못해요	-12.1011
▁인공지능이	-12.1012
▁크레	-12.1013
▁노인분들이	-12.1014
▁올라오면	-12.1014
▁벽화	-12.1019
▁상장	-12.1024
▁책임질	-12.1025
레스	-12.1027
명이랑	-12.1027
▁워터	-12.1032
▁내리면	-12.1033
▁친절하게	-12.1034
▁지하철이나	-12.1035
▁꽂아	-12.1039
펄	-12.1043
살까지	-12.1043
▁따듯	-12.1043
명이나	-12.1044
▁부르면서	-12.1045
▁받으면은	-12.1047
었다면	-12.1053
새우	-12.1055
▁신혼부부	-12.1055
▁올리브	-12.1058
▁위주의	-12.106
▁할머니랑	-12.106
▁다니시는	-12.1062
님한테	-12.1065
▁있길래	-12.1065
▁신기하네	-12.1066
▁없거나	-12.1067
▁유투버	-12.1068
▁바퀴벌레	-12.1068
▁애완	-12.1071
▁탄소	-12.1072
▁이동할	-12.1075
명밖에	-12.108
▁프로듀스	-12.1081
▁남기고	-12.1081
▁그저께	-12.1082
▁부족해	-12.1082
▁일반인들이	-12.1083
▁위험하다	-12.1083
▁다니면은	-12.1084
▁편이라고	-12.1084
시험	-12.1087
▁다큐	-12.1089
▁입대	-12.109
▁캠퍼스	-12.1094
▁저절로	-12.1094
▁정당	-12.1096
▁전기세	-12.1099
▁빡세	-12.1099
▁비우	-12.1099
▁추웠	-12.1102
▁유교	-12.1102
▁끔찍	-12.1107
▁컵라면	-12.1109
▁보이게	-12.1109
▁은행에서	-12.111
▁단골	-12.1112
▁노랜데	-12.1112
▁언론의	-12.1113
▁코어	-12.1114
▁천장	-12.1114
▁규칙적으로	-12.1116
▁선입견	-12.112
▁시부모님	-12.112
밸	-12.112
▁온몸	-12.1121
▁올라올	-12.1122
▁연동	-12.1124
▁있든	-12.1125
▁의상	-12.1127
▁무기	-12.1128
▁홍어	-12.1128
몇	-12.1129
▁사라져	-12.1131
▁브이로그	-12.1133
▁아이엠에프	-12.1133
▁암표	-12.1135
▁느낌이었어	-12.1135
▁괴롭히	-12.1136
▁때문인	-12.1137
▁독서실	-12.1138
▁카페인	-12.114
▁다음번에	-12.1141
▁보드게임	-12.1146
▁저축을	-12.115
▁위축	-12.1151
▁근교	-12.1153
▁시리즈를	-12.1154
▁계기로	-12.1158
▁주소	-12.1158
▁홈페이지	-12.1159
▁복잡해	-12.1159
▁접촉	-12.116
▁연애하는	-12.1161
▁갔나	-12.1162
▁릴스	-12.1165
▁강해서	-12.1177
▁기종	-12.1177
어져서	-12.1181
▁기운이	-12.1181
▁먹는다는	-12.1182
▁글자	-12.1182
▁여행하면서	-12.1183
▁요구르트	-12.1185
▁국가대표	-12.1185
▁영양소	-12.1185
▁키보드	-12.1185
▁분산	-12.1187
▁기다렸다가	-12.1189
▁시집을	-12.119
▁더우니까	-12.1191
▁대천	-12.1191
▁재미있었던	-12.1192
▁의지를	-12.1193
▁나름대로의	-12.1193
▁워치를	-12.1195
▁생겼다고	-12.1195
▁끊임없이	-12.1198
▁알기론	-12.1198
▁친하고	-12.1199
▁물어봐야	-12.12
▁상품들	-12.1201
▁곡들	-12.1206
빤	-12.1207
▁해결되	-12.1208
▁똑같은데	-12.121
▁부대찌개	-12.1211
펌	-12.1211
▁에이비형	-12.1211
▁무서울	-12.1211
▁없었기	-12.1212
▁말씀드렸듯이	-12.1212
바람	-12.1212
▁기뻐	-12.1212
▁숙소에서	-12.1214
▁시청률	-12.1215
▁매수	-12.1217
▁소리야	-12.1218
▁탁구를	-12.122
▁맡기고	-12.1223
▁컴활	-12.1224
▁굽는	-12.1226
▁폭락	-12.1226
▁구청	-12.1226
▁장래	-12.1227
▁남습니다	-12.1227
▁지리	-12.1229
▁팔찌	-12.1229
▁계발	-12.1229
▁울리	-12.1231
▁유명해지	-12.1233
▁재미있고	-12.1237
▁혈당	-12.1238
써	-12.1239
▁책임감을	-12.124
▁가능해	-12.124
▁바닥이	-12.124
▁쪼끄	-12.1242
▁재정	-12.1245
▁유명했던	-12.1246
▁전날에	-12.1247
▁고르고	-12.1247
▁투자한	-12.1247
▁현장에	-12.1249
라운드	-12.125
▁데려와서	-12.125
▁누굴	-12.1251
▁무난하게	-12.1255
▁느꼈거든	-12.1258
▁포인트를	-12.1259
▁잡아먹	-12.1259
▁달달	-12.1262
연대	-12.1263
▁아시죠	-12.1264
▁소시지	-12.1264
▁메밀	-12.1265
▁멜로	-12.1265
▁다룬	-12.1266
▁들지만	-12.1267
▁쇼핑몰에서	-12.1269
▁차가운	-12.127
▁나가려고	-12.1273
▁위험하지	-12.1275
▁배신	-12.1276
▁첫인상	-12.1276
▁있었나요	-12.1279
▁스노클링	-12.1289
툴	-12.1289
▁입장으로서	-12.1291
▁어려우니까	-12.1293
▁반바지	-12.1293
▁관중	-12.1294
▁청량	-12.1295
▁않을까란	-12.1296
▁뮤직비디오	-12.1302
▁쓰러지	-12.1303
겠더라	-12.1303
▁이어져	-12.1304
▁양산	-12.1307
▁마음먹	-12.1307
▁프라	-12.1307
▁들어오니까	-12.1307
▁받아본	-12.131
▁모일	-12.1313
▁시술	-12.1314
▁보냈어	-12.1315
▁떨어진다고	-12.1316
▁뷰티	-12.1316
▁감자탕	-12.1318
▁불리는	-12.1319
▁찾아보게	-12.1319
▁키웠어	-12.1321
▁환율	-12.1322
▁신기하기도	-12.1324
▁맨발	-12.1328
▁통통	-12.1329
▁나왔으니까	-12.1329
▁보이스	-12.1329
▁요건	-12.1331
▁녹화	-12.1334
▁막국수	-12.1335
▁치는데	-12.1336
▁비디오	-12.1342
▁유동	-12.1342
▁태양광	-12.1342
▁레드	-12.1343
▁사냥	-12.1346
▁야시장	-12.1348
▁연락해	-12.135
▁과외를	-12.1352
▁결정할	-12.1352
▁구피	-12.1355
▁탑건	-12.1355
▁공항에서	-12.1357
▁파마	-12.1358
▁회장님	-12.1358
▁구운	-12.1359
▁때문이야	-12.1363
빨	-12.1365
▁아시나요	-12.1365
▁노인들이	-12.1366
▁판단하는	-12.1366
▁마그네슘	-12.1368
▁생크림	-12.1368
▁프라이팬	-12.1368
▁민트	-12.137
▁닭고기	-12.1371
▁꼼꼼하게	-12.1374
▁강박	-12.1374
▁고맙게	-12.1375
▁소형	-12.1375
▁학력	-12.1377
▁스타일인	-12.1377
륙	-12.138
▁전화로	-12.1381
▁높아졌	-12.1381
▁벤치	-12.1383
▁연료	-12.1388
▁집중적으로	-12.1389
▁식감이	-12.139
▁남자친구랑	-12.139
▁양평	-12.1391
▁입술	-12.1393
▁드러내	-12.1395
▁간다든가	-12.1395
▁있으셨	-12.1398
▁없다라는	-12.1398
▁보호소	-12.1399
▁싫어했던	-12.1401
하셨나요	-12.1401
▁운동이라고	-12.1406
▁대중교통으로	-12.1408
▁듣거나	-12.1409
▁호두	-12.141
월달	-12.1412
▁구해서	-12.1414
잔데	-12.1416
▁이래야	-12.1419
▁성숙	-12.1419
▁생각했지	-12.142
▁활약	-12.1422
▁모르겠네요	-12.1422
▁못했어요	-12.1422
▁사장이	-12.1423
▁튀겨	-12.1426
▁간섭	-12.1428
▁들어오면은	-12.143
▁좋잖아요	-12.1431
▁없겠지	-12.1431
▁하난데	-12.1435
▁체벌	-12.1436
▁외로움	-12.1436
▁괜찮을까	-12.1438
▁감동적이	-12.144
▁권리를	-12.1442
▁의사들	-12.1444
▁그렇잖아요	-12.1447
▁세트로	-12.1447
▁업데이트	-12.1448
▁처리하는	-12.145
▁홈쇼핑에서	-12.1452
▁터진	-12.1455
▁되든	-12.1459
굿	-12.1461
▁이엔티피	-12.1461
▁입마개	-12.1461
했겠지	-12.1462
▁지나간	-12.1465
얘	-12.1465
▁상권	-12.1467
100	-12.1467
▁했었다	-12.1469
▁겪었던	-12.147
갯	-12.1475
▁박효신	-12.1475
▁위험성이	-12.1477
▁많아져	-12.1478
▁기업에서	-12.1479
▁내려가면	-12.1481
▁노령	-12.1481
▁에어비앤비	-12.1488
▁철저하게	-12.1488
▁컨셉	-12.1488
▁시지브이	-12.1488
▁온도가	-12.1489
▁불편해서	-12.1491
▁모임에서	-12.1493
하시기	-12.1494
▁케어해	-12.1495
이었어서	-12.1496
딘	-12.15
▁심각하게	-12.15
▁사야겠다	-12.151
하시잖아	-12.1512
▁시디	-12.1513
비스	-12.152
공포증	-12.1521
▁비상	-12.1524
▁안쓰럽	-12.1528
▁업그레이드	-12.1528
▁선풍기	-12.1528
▁왕따	-12.1529
▁반복되	-12.1534
▁위험해	-12.1536
▁정형외과	-12.1542
▁어머니랑	-12.1542
▁특례	-12.1544
▁등록금	-12.1545
▁출시	-12.1545
▁학부	-12.1546
▁계약직	-12.1546
▁요소들	-12.1547
▁나오시	-12.1549
▁소액	-12.1549
▁올려놓	-12.1552
▁가려면은	-12.1555
▁낮아지	-12.1555
▁비린내	-12.1555
▁지그재그	-12.1555
벌레	-12.1556
▁지켜보고	-12.1557
▁상주	-12.1559
▁모드	-12.1559
▁가져갈	-12.156
▁되신	-12.1561
▁다르더라고요	-12.1562
웃	-12.1562
▁단점인	-12.1565
▁장기간	-12.1565
▁바쁘게	-12.1566
▁김치볶음밥	-12.1569
▁여사친	-12.1569
▁싸웠던	-12.1569
▁없애고	-12.1571
▁체질이	-12.1572
▁까먹고	-12.1573
▁입장인데	-12.1575
▁권장	-12.1576
▁120	-12.1578
▁흘려	-12.158
▁조깅	-12.1582
▁복귀	-12.1584
▁목숨을	-12.1589
▁우울증이	-12.1592
▁교직	-12.1594
▁먹겠다	-12.1596
▁텐션	-12.1596
▁필요하니까	-12.1598
▁벌었다	-12.1599
▁그러자	-12.16
▁해결해야	-12.1603
▁본가에	-12.1604
▁180	-12.1605
▁달라져	-12.1605
▁연기력	-12.1608
▁설마	-12.1608
▁안타깝고	-12.1609
▁멋있더라고	-12.1609
▁스타트업	-12.1609
▁비혼주의	-12.1609
▁잠옷	-12.1611
▁아이들과	-12.1611
▁모르긴	-12.1612
화되고	-12.1612
▁혼났	-12.162
▁무시할	-12.162
▁생일날	-12.1621
▁듣거든	-12.1622
▁간헐적	-12.1623
▁품목	-12.1624
▁제안	-12.1627
▁키운다는	-12.1629
▁내용이야	-12.163
스러울	-12.1638
▁늘어날	-12.1638
▁문장	-12.1641
▁포디	-12.1642
▁합쳐서	-12.1643
▁입었던	-12.1645
▁아까워서	-12.1646
▁얘기하기	-12.1646
▁놀래	-12.1647
▁세입자	-12.165
▁드물	-12.1651
▁마음껏	-12.1652
▁편이어	-12.1652
▁장식	-12.1655
▁시력이	-12.1659
▁필요하면	-12.1662
뻥	-12.1664
▁앞두고	-12.1666
▁잠들	-12.1666
▁만족도가	-12.1667
▁스타일로	-12.1667
▁실외	-12.1669
▁다음부터는	-12.167
▁한정적이	-12.1671
▁판단할	-12.1672
▁광어	-12.1672
▁밀면	-12.1673
▁풀리는	-12.1675
80	-12.1675
▁들어오게	-12.1676
▁마음속에	-12.168
거리면서	-12.168
▁불려	-12.1683
점이라고	-12.1686
▁썼다	-12.1687
▁시력	-12.1688
▁방역	-12.1688
▁담양	-12.1691
▁루테인	-12.1691
갭	-12.1691
컥	-12.1691
▁소비자들	-12.1696
▁벌써부터	-12.1698
▁불행	-12.1699
▁공유하고	-12.17
▁택시비	-12.17
▁정수기	-12.1706
▁모르면	-12.1706
▁서예	-12.1707
▁커지고	-12.1708
▁붙여서	-12.1713
▁끓여서	-12.1717
▁대중음악	-12.1718
▁싱크대	-12.1718
▁이것만	-12.1721
▁꾸려	-12.1724
▁입기	-12.1727
▁계획적이	-12.1731
▁향수를	-12.1732
▁나쁠	-12.1732
▁민감하	-12.1734
▁악플	-12.1737
▁컨디션이	-12.1738
▁유행했던	-12.174
닷	-12.1746
▁레전드	-12.1746
▁바뀌면서	-12.1746
▁컨텐츠	-12.1746
▁듣잖아	-12.1746
▁됐기	-12.1746
▁와우	-12.1749
▁인종	-12.1749
▁세계관	-12.1751
▁느려	-12.1754
▁비교해서	-12.1755
▁리스크가	-12.1755
▁다녔어요	-12.1756
▁찜닭	-12.176
▁맹신	-12.1761
▁채팅	-12.1762
▁싶거나	-12.1762
▁관리비	-12.1765
▁죽었다	-12.1767
▁제안을	-12.1771
▁마켓컬리	-12.1773
▁소규모	-12.1773
▁체르노빌	-12.1773
▁통역	-12.1774
춤	-12.1776
▁마신	-12.1776
▁접수	-12.1777
▁접목	-12.1779
무침	-12.178
▁다닌다고	-12.1782
▁퍼져	-12.1783
▁힘들기도	-12.1784
▁탕후루	-12.1787
▁아깝지	-12.179
▁산타	-12.179
▁상관없는데	-12.1791
▁서브	-12.1791
▁알파	-12.1792
▁불편하다고	-12.1794
▁좋아하셔	-12.1795
▁800	-12.1796
▁부모님과	-12.1797
▁뉴질랜드	-12.1801
▁싸다	-12.1802
▁비리	-12.1803
▁했었으니까	-12.1805
▁99	-12.1806
▁직업들이	-12.1806
으며	-12.1806
▁실버	-12.1807
▁자다가	-12.1808
▁골프장	-12.1812
▁출석	-12.1812
▁당연하게	-12.1813
콕	-12.1813
▁답장	-12.1818
▁섭취를	-12.1822
▁만드는데	-12.1824
겠구나라는	-12.1825
▁이래가지고	-12.1827
▁먹으	-12.1828
▁시아버지	-12.1829
▁아이에스에프피	-12.1829
▁전반적인	-12.1829
▁없으신	-12.1829
▁스릴	-12.183
▁익혀	-12.1831
▁형사	-12.1831
▁겪은	-12.1835
▁신규	-12.1837
시키면	-12.1838
▁살아가고	-12.1839
▁튀기	-12.184
▁오셔서	-12.1841
투자	-12.1842
▁플레이리스트	-12.1843
▁정원	-12.1846
▁실적	-12.1848
▁관여	-12.1849
▁상체	-12.1851
▁재밌었지	-12.1854
▁먹습니다	-12.1855
▁추어탕	-12.1856
▁마크	-12.1858
▁생각한다면	-12.1858
▁성분이	-12.186
▁신입생	-12.1862
▁전문직	-12.1862
▁어디든지	-12.1866
▁복잡	-12.1866
▁핏이	-12.1866
▁납골당	-12.187
▁강호동	-12.187
▁해보자	-12.187
▁청소하는	-12.1872
▁됐죠	-12.1873
▁워크	-12.1873
▁내려올	-12.1873
▁오빤	-12.1874
▁들어갔던	-12.1875
▁이랬었	-12.1878
▁부족하다고	-12.1882
▁독서를	-12.1885
▁휴대폰으로	-12.1887
▁비교했을	-12.1889
▁취약	-12.189
▁동탄	-12.1892
▁그랬지만	-12.1894
▁유명하다고	-12.1895
▁뼈가	-12.1896
▁심리적으로	-12.1898
뻐	-12.1898
▁데이식스	-12.1898
▁관심사가	-12.19
▁제재를	-12.19
▁운명	-12.19
▁모습으로	-12.1901
▁당연하	-12.1903
▁낙지	-12.1906
찮	-12.1912
▁곰팡이	-12.1912
▁슬랙스	-12.1912
▁어땠을까	-12.1912
잣	-12.1912
▁인사이드	-12.1912
▁현실적이	-12.1914
▁더러워	-12.1915
▁살찌	-12.1916
▁프로그램들이	-12.1919
▁아버지랑	-12.192
▁육체적으로	-12.1921
▁물어보면은	-12.1921
주셨으면	-12.1922
▁꼬박꼬박	-12.1926
▁엽떡	-12.1926
▁판정	-12.1928
▁놀라운	-12.1929
▁어떡할	-12.1932
▁불편하다	-12.1933
▁내용들이	-12.1933
▁댁에	-12.1935
▁면제	-12.1935
▁관점에서	-12.1935
▁들어왔는데	-12.1935
▁삼촌이	-12.1941
▁딸한테	-12.1941
▁타협	-12.1942
▁따기	-12.1943
▁넓혀	-12.1943
시쯤에	-12.1944
▁약사	-12.1945
일리가	-12.1947
▁이익이	-12.1947
▁지쳐	-12.1947
▁날리고	-12.195
▁에이형이	-12.1953
▁파란	-12.1955
▁추가적으로	-12.1964
▁공사를	-12.1966
텅	-12.1968
▁이문세	-12.1968
▁변할	-12.1973
▁도둑	-12.1975
▁줌으로	-12.1976
▁원장	-12.198
▁훈련소	-12.1981
▁안녕하세요	-12.1982
▁초보	-12.1983
▁두께	-12.1983
▁마당에	-12.1985
▁비춰	-12.199
▁시공	-12.199
▁불렀는데	-12.1992
획	-12.1994
▁벗어나서	-12.1996
▁저출산	-12.1996
▁새마을	-12.1997
▁중간고사	-12.1997
▁들었었거든	-12.1999
업자	-12.2001
▁저녁때	-12.2002
▁어마어마하게	-12.2004
▁물속에	-12.2006
▁바깥에서	-12.2007
▁재방송	-12.2012
▁회피	-12.2014
▁평범하게	-12.2014
▁혼내	-12.2015
▁가능하지	-12.2016
▁세대들은	-12.2018
▁끈끈	-12.2025
▁레몬	-12.2025
▁애매하고	-12.2026
▁만들려고	-12.2027
▁이후부터	-12.2037
쩜	-12.2039
탠	-12.2039
▁기운	-12.2039
▁콜라겐	-12.2039
▁코디	-12.204
▁인스타에서	-12.2043
▁찍었던	-12.2045
로서의	-12.2046
▁아끼고	-12.2049
▁분인데	-12.2049
▁가벼워	-12.2053
더블유	-12.2053
▁폴더	-12.2054
▁부추	-12.2058
▁자국	-12.2058
▁센터에서	-12.2059
▁부업	-12.206
▁올까	-12.2062
▁인수	-12.2065
▁협력	-12.2066
▁움직이면	-12.2067
에너지	-12.2067
▁암컷	-12.2068
▁저것	-12.2072
▁편이기도	-12.2073
▁살릴	-12.2078
▁포메라니안	-12.2081
넨	-12.2081
▁미성년자	-12.2081
▁금전적으로	-12.2081
▁플립	-12.2082
▁없었지만	-12.2084
▁개구리	-12.2087
▁보쌈	-12.2089
▁기사님이	-12.209
▁코난	-12.2092
▁구비	-12.2093
▁높아진	-12.2095
▁화질	-12.2097
▁미루고	-12.2098
▁않으면서	-12.2099
▁좋겠네요	-12.2106
▁주꾸미	-12.211
▁책임져야	-12.2111
▁영화제	-12.2112
▁키우니까	-12.2113
▁선택하게	-12.2118
▁체험해	-12.2121
▁생기더라고요	-12.2125
▁미스	-12.2126
▁취준생	-12.2127
▁억울하	-12.2127
주시면	-12.213
▁소송	-12.2133
▁상위	-12.2137
▁궁금하다	-12.2137
릇	-12.2138
렛	-12.2138
▁환승연애	-12.2138
▁김연아	-12.2138
▁스타일러	-12.2139
▁복지관	-12.2142
▁맞으면서	-12.2143
했지마는	-12.2143
▁쪼그	-12.2144
▁신랑이랑	-12.2144
▁건강해야	-12.2146
였죠	-12.2147
▁꼬치	-12.2153
▁우연	-12.2153
▁나가면서	-12.2158
▁모습들을	-12.2159
▁맡았	-12.2159
▁지혜	-12.2161
▁성남	-12.2164
▁끼니	-12.2164
▁압박감	-12.2165
업체	-12.2166
드립니다	-12.2166
▁똑바로	-12.2167
▁이무진	-12.2167
▁추위를	-12.2169
댄데	-12.2172
해야겠다는	-12.2174
▁가능하고	-12.2175
▁성별	-12.2175
▁발언	-12.2177
▁환경적인	-12.2181
▁김연경	-12.2181
▁바쁘니까	-12.2184
합시다	-12.2186
▁캠핑카	-12.2186
▁체계적으로	-12.2188
▁고맙다고	-12.2191
▁알림	-12.2194
▁불량	-12.2196
콧	-12.2196
▁극단적으로	-12.2196
▁밤늦게	-12.2196
▁버티고	-12.2198
▁키우려고	-12.22
▁누군가에게	-12.2201
▁탈모	-12.2201
▁들어오지	-12.2201
▁알면서도	-12.2203
▁상대로	-12.2203
▁넘었는데	-12.2204
돔	-12.221
▁웨이브	-12.221
▁엔화	-12.2212
▁힘으로	-12.2213
▁유출	-12.2213
▁신상	-12.2215
▁수영복	-12.2218
▁복무	-12.2221
▁모범	-12.2223
▁부각	-12.2224
▁구매해서	-12.2224
▁마법	-12.2224
▁시내버스	-12.2225
▁위해서라도	-12.2226
칼국	-12.2229
▁봐봐	-12.2229
▁정신과	-12.223
▁유명하다	-12.2231
▁이루어지지	-12.2232
▁되도록	-12.2233
▁고프	-12.2234
년이면	-12.2235
▁그랬거든요	-12.2239
▁발톱	-12.2242
▁치킨집	-12.2244
▁주저	-12.2245
▁한쪽으로	-12.225
▁끄고	-12.225
▁단타	-12.2254
▁시청자들	-12.2255
▁내성적이	-12.2256
▁메리트	-12.2256
▁눈빛	-12.2258
▁서비스직	-12.2261
▁디테일	-12.2263
▁치열	-12.2263
▁없었으니까	-12.2265
▁방향성	-12.2265
▁영웅	-12.2266
▁쌍꺼풀	-12.2268
▁퀴즈	-12.2268
▁온갖	-12.2268
집니다	-12.227
▁수납	-12.2271
▁이용하는데	-12.2271
▁무시하고	-12.2273
▁핑크색	-12.2273
▁사이버	-12.2274
▁보라색	-12.2277
▁작다	-12.2281
공단	-12.2281
▁육군	-12.2283
▁알려줘	-12.2284
▁덥지	-12.2291
▁됐었던	-12.2291
였더라	-12.2294
▁노란	-12.2295
▁왜곡	-12.2296
▁캐주얼	-12.2297
▁포르투갈	-12.2297
▁활성화되	-12.2301
▁가져가서	-12.2304
▁노랜	-12.2307
▁애정을	-12.2309
▁시점에서	-12.231
▁모았	-12.2311
▁최악의	-12.2311
▁예고편	-12.2312
▁몰랐다	-12.2313
▁들어간다고	-12.2313
▁띄워	-12.2315
▁속상했	-12.2317
▁학군	-12.232
▁기다려서	-12.2321
▁귀여워서	-12.2324
▁르세라핌	-12.2326
▁한국말	-12.2327
▁고른	-12.2327
▁사이클	-12.2328
▁계셨는데	-12.233
스럽다	-12.2333
▁크면서	-12.2336
▁신사	-12.2337
▁학생들한테	-12.2338
된다면	-12.2339
▁답답하고	-12.2339
▁풀리면	-12.234
▁만든다고	-12.2341
▁경관	-12.2341
▁떨어지니까	-12.2341
▁미쳐	-12.2342
▁쓰거나	-12.2343
▁목록	-12.2344
▁저금	-12.2344
▁근육량	-12.2347
었대	-12.2351
▁듣던	-12.2355
▁돌아다닐	-12.2355
▁선글라스	-12.2355
떡볶이	-12.2356
▁축복	-12.2359
▁떠났	-12.2361
▁출구	-12.2368
톨	-12.237
▁번갈아	-12.237
줍니다	-12.237
▁베풀	-12.2371
▁편입생	-12.2375
▁여자분들	-12.2376
▁시설들이	-12.2376
▁힘들었어요	-12.2376
▁작사	-12.2376
▁군사	-12.2379
▁세끼	-12.238
▁친했	-12.2381
▁화성	-12.2386
▁느껴지지	-12.2387
주셨어	-12.2387
릴까	-12.239
▁유용하게	-12.239
▁보일러	-12.239
▁걸리는데	-12.2391
▁버블	-12.2391
▁차지하고	-12.2397
윙	-12.2397
▁받았다고	-12.2398
깜	-12.2399
뛴	-12.2399
▁멀티	-12.2403
▁없어져야	-12.2407
▁계셔서	-12.2408
▁줄여서	-12.241
▁네임	-12.2412
퓨	-12.2413
▁유일한	-12.2414
▁덥다	-12.2415
▁기숙사에서	-12.2416
▁오름	-12.2417
▁쪄서	-12.2419
▁글면	-12.2422
▁왔었거든	-12.2427
었었어	-12.2427
▁행복했던	-12.2427
▁무섭기도	-12.2429
▁끌리	-12.243
▁맞춘	-12.2431
▁결코	-12.2433
▁불교	-12.2434
▁됐더라고	-12.2436
▁열광	-12.2437
▁취직할	-12.2439
▁걱정돼	-12.2439
▁속눈썹	-12.2443
▁어벤져스	-12.2443
▁분리수거	-12.2443
▁튀긴	-12.2445
따라	-12.2447
▁날마다	-12.2451
▁발령	-12.2452
▁하나님	-12.2452
▁법안	-12.2456
▁휴일	-12.2459
▁좋아하더라고요	-12.2467
▁성인병	-12.247
▁소수의	-12.248
▁걸린다	-12.248
▁않겠지	-12.248
▁많아지니까	-12.2485
▁아이에스티제이	-12.2487
엥	-12.2487
▁웃어	-12.2489
▁합창	-12.2492
▁들어보고	-12.2492
▁예정이야	-12.2493
▁발성	-12.2494
▁남산	-12.2496
▁어렵기	-12.25
킴	-12.2502
▁배고파	-12.2502
▁중점적으로	-12.2507
▁알겠는데	-12.251
▁얘한테	-12.251
▁노출되	-12.2515
▁나오더라	-12.2516
▁강형욱	-12.2517
▁오케스트라	-12.2517
▁되느냐	-12.2521
▁활발하고	-12.2524
▁드실	-12.2525
▁본능	-12.2526
▁인격	-12.2527
▁체조	-12.2528
▁성실하	-12.2531
▁물어봐서	-12.2531
▁놀면서	-12.2531
▁오디오	-12.2532
▁나영석	-12.2532
▁남자분들	-12.2534
▁싫어하지	-12.2534
▁기름진	-12.2538
▁배웠어	-12.2538
쁠	-12.2541
▁부드럽고	-12.2545
▁아이쇼핑	-12.2547
▁유퀴즈	-12.2547
▁블록	-12.2547
▁올케	-12.2547
▁간소화	-12.2548
▁바람직하	-12.2548
숲	-12.2553
▁구찌	-12.2553
▁언제든	-12.256
▁제육볶음	-12.2562
곁	-12.2565
▁파괴	-12.2566
회의를	-12.2567
였었는데	-12.2571
▁부류	-12.2573
▁랜덤	-12.2577
▁유적지	-12.2578
▁공동체	-12.2579
▁프로틴	-12.2579
▁결승	-12.258
▁여론	-12.258
▁깊었어	-12.2583
▁위쪽	-12.2583
▁천국	-12.2583
▁배정	-12.259
컹	-12.2592
▁단맛	-12.2592
▁나빴	-12.2603
▁생각이에요	-12.2603
▁봤었거든요	-12.2605
▁먹을래	-12.2606
▁갖춰져	-12.2606
▁비슷해서	-12.2606
▁성장하는	-12.2606
▁메이저	-12.2606
▁높아져	-12.2607
▁호흡기	-12.2607
▁조미료	-12.2607
▁다혈질	-12.2607
▁똑같다고	-12.2607
▁변하지	-12.2608
▁인원수	-12.2608
▁재밌었어요	-12.261
▁없으시	-12.261
▁소용이	-12.261
▁무엇인지	-12.2611
▁신나고	-12.2611
▁발바닥	-12.2612
▁내버려	-12.2615
▁해보려고	-12.2616
▁올라가니까	-12.2617
▁시원하	-12.2619
▁바르셀로나	-12.2622
▁엠비시	-12.2622
▁홈런	-12.2624
▁좋아했지	-12.2625
▁근무하는	-12.2626
▁좋았지만	-12.2626
▁재난	-12.2627
▁명동	-12.2635
▁산책할	-12.2635
▁목동	-12.2636
▁걸렸었	-12.2637
▁물어봤더니	-12.2637
▁흑돼지	-12.2637
▁디즈니랜드	-12.2637
▁센스	-12.2637
▁간단히	-12.2639
▁반짝	-12.264
떠	-12.2641
▁대중화	-12.2642
▁효율적인	-12.2643
▁쓰이고	-12.2649
▁알아보면	-12.265
▁게네들	-12.2651
▁중계	-12.2651
▁착해	-12.2653
40	-12.2654
▁허무	-12.2655
▁쇼트	-12.2656
▁싫어하거든	-12.2656
▁실패한	-12.2657
▁지장이	-12.2659
▁편이니까	-12.2666
90	-12.2666
▁안타까웠	-12.2667
▁백화점이나	-12.267
▁개인주의	-12.267
▁유해진	-12.2672
꿀	-12.2676
▁탈락	-12.2678
▁버린다	-12.268
▁퍼지	-12.2681
▁심심할	-12.2681
▁비투비	-12.2682
▁삼시	-12.2683
▁향기	-12.2684
▁배우려고	-12.2684
▁폭포	-12.2686
▁경찰서	-12.2687
▁고려해서	-12.2691
▁좋겠거든	-12.2692
▁말랐	-12.2692
▁되네요	-12.2693
▁생각난다	-12.2694
▁와이파이	-12.2697
▁적절하게	-12.2697
▁만지고	-12.2697
▁따지자면	-12.2698
▁도서관에서	-12.2703
▁죽이는	-12.2703
▁신체적으로	-12.2704
▁친목	-12.2705
▁정규	-12.2706
▁같으	-12.2707
▁권력	-12.2711
▁동기들이랑	-12.2713
▁시작해야	-12.2713
▁바쁠	-12.2714
십니다	-12.2715
▁없어졌어	-12.2723
셈	-12.2727
▁샤넬	-12.2727
▁하루종일	-12.2727
▁땅콩	-12.2728
▁롯데리아	-12.2728
▁곳곳에	-12.2728
▁봤었잖아	-12.2728
▁연예계	-12.2729
▁종류별로	-12.2731
▁그러겠지	-12.274
▁평상시	-12.274
▁립스틱	-12.2742
▁맨투맨	-12.2742
켄	-12.2742
▁교통수단	-12.2742
▁매물	-12.2744
▁입문	-12.2745
▁예쁜데	-12.2746
▁여겨	-12.2753
▁봉준호	-12.2757
▁깜빡	-12.2757
▁어지럽	-12.2758
▁분노	-12.2759
▁가까워지	-12.2762
▁넘어간	-12.2768
다닥	-12.2769
포인트	-12.2772
▁공중파	-12.2774
▁그리워	-12.2777
꼈	-12.2788
▁객관적으로	-12.2788
▁뛰어넘	-12.2788
▁식물인간	-12.2788
▁노이즈	-12.279
▁기존의	-12.2792
▁보겠다	-12.2793
▁없었거든요	-12.2794
개밖에	-12.2796
▁기름값	-12.2798
월달에	-12.28
▁혈관	-12.2801
▁자식한테	-12.2801
▁퇴직을	-12.2803
해줬으면	-12.2803
▁독특하	-12.2804
▁유머	-12.2804
▁청춘	-12.2805
▁말아라	-12.2808
▁졸업하면	-12.281
▁양육	-12.2812
트랙	-12.2815
▁베테랑	-12.2818
▁목도리	-12.2821
▁넷이	-12.2823
퀴	-12.2826
▁주입	-12.2829
▁편했던	-12.2831
▁비슷했	-12.2831
▁식스	-12.2834
▁카리나	-12.2834
거려	-12.2837
▁얼마큼	-12.2839
▁값어치	-12.2849
▁참기름	-12.2849
▁마흔	-12.2853
▁지나다	-12.2856
▁싸다고	-12.2858
▁공유할	-12.2858
▁모의고사	-12.2865
▁포장마차	-12.2865
▁떠올리	-12.2865
▁먹으려면	-12.2867
▁자존감이	-12.2868
▁돌아온	-12.2868
▁교토	-12.2872
▁특성화고	-12.2872
▁플랜	-12.2878
▁오키나와	-12.288
▁은퇴하	-12.288
▁문재인	-12.288
▁팀장	-12.2881
▁테무	-12.2882
▁일자	-12.2882
▁지났는데	-12.2883
▁추위	-12.289
▁이해하기	-12.2892
▁연결해	-12.2894
▁형한테	-12.2895
▁틈틈이	-12.2895
▁김수현	-12.2895
▁썼었	-12.2897
▁몰랐었	-12.2899
▁좋아했었고	-12.2899
▁인물이	-12.2899
▁써먹	-12.29
▁돌았	-12.2901
▁깔끔하	-12.2904
▁행복하다	-12.2909
▁초록	-12.2912
▁영혼	-12.2914
▁임대료	-12.2914
하길	-12.2915
▁울었던	-12.2916
▁좋았습니다	-12.292
▁승리	-12.2934
엉	-12.2935
첼	-12.2936
▁대도시	-12.2937
▁지급	-12.2938
▁재미있어	-12.294
▁부드러운	-12.2942
▁스피드	-12.2942
▁재킷	-12.2942
▁회계사	-12.2944
▁그레이	-12.2945
▁것이냐	-12.295
▁먹으라	-12.2951
▁익숙하지	-12.2952
▁팩트	-12.2957
▁장면들이	-12.2971
▁비슷	-12.2971
▁춤추고	-12.2973
▁얼만데	-12.2973
▁포스터	-12.2975
▁늑대	-12.2975
▁빠져들	-12.2976
하셔가지고	-12.2977
했다라고	-12.2978
▁강점	-12.2978
▁변비	-12.2985
▁넘어오	-12.2987
▁찍기	-12.2987
▁영등포	-12.2988
엣	-12.2988
▁사투리	-12.2989
▁강하다	-12.2993
▁좋아했었거든	-12.2997
▁시작하니까	-12.2999
▁역세권	-12.3004
▁엔씨	-12.3007
메이드	-12.3007
▁생각했고	-12.3009
▁개수	-12.3012
▁근래	-12.3018
▁치중	-12.3025
▁무난한	-12.3025
▁그것까지	-12.3026
▁밖을	-12.3027
▁어리다	-12.3028
▁원금	-12.3031
▁제빵	-12.3032
▁이랬더니	-12.3035
▁도우미	-12.3035
▁다뤄	-12.3039
▁친분	-12.3044
▁관리하기	-12.305
▁광장	-12.3051
▁대단히	-12.3051
▁간접	-12.3058
▁붐이	-12.3058
▁선생님께	-12.306
▁경쟁률이	-12.3066
▁위아래	-12.3066
▁비둘기	-12.3066
▁억울한	-12.3069
▁키워드	-12.3069
답게	-12.3073
▁아버지께서	-12.3078
▁아이러니	-12.3082
▁귀엽더라고	-12.3083
▁동창회	-12.3084
▁재료들	-12.309
▁다니거나	-12.3091
▁오르기	-12.3092
숨	-12.3093
▁않더라	-12.3094
▁소중하게	-12.3096
펑	-12.3098
▁국민연금	-12.3098
▁불쌍한	-12.3098
봅시다	-12.3098
▁가격적인	-12.31
▁나갔어	-12.3101
▁체인점	-12.3102
퀸	-12.3114
▁블라인드	-12.3114
▁없어지면	-12.3114
▁살았으니까	-12.3117
▁우선시	-12.312
▁밥값	-12.312
▁공정	-12.3122
▁선전	-12.3123
▁세웠	-12.3126
▁첨에	-12.3128
▁슈퍼스타	-12.313
▁원숭이	-12.313
▁표출	-12.3132
▁않으셨	-12.3134
▁런던	-12.3135
▁협의	-12.3136
▁느끼는데	-12.3136
▁학문	-12.3148
▁맞추면	-12.3152
▁설사	-12.3154
▁배워보고	-12.3155
▁유리한	-12.3156
▁데리러	-12.3161
▁유기묘	-12.3162
▁식빵	-12.3166
▁생명체	-12.3167
▁든든하	-12.3168
▁종강	-12.3168
▁살펴	-12.3169
▁않느냐	-12.3172
▁넘쳐	-12.3173
▁포토	-12.3174
▁빠졌어	-12.3175
▁지루해	-12.3177
▁아날로그	-12.3177
섀	-12.3177
▁others	-12.3177
▁뜨개질	-12.3177
▁쌍둥이	-12.3177
검사	-12.3179
▁검토	-12.318
▁비켜	-12.318
▁틀면	-12.3187
▁수단으로	-12.3187
70	-12.3189
▁만들었는데	-12.3192
▁배민	-12.3193
▁호떡	-12.3197
▁없으니깐	-12.3198
▁뭔갈	-12.3199
▁모자라	-12.3199
▁지나가다	-12.32
▁솔직	-12.3202
▁쉬울	-12.3202
▁지연	-12.3203
방울	-12.3203
▁있냐면	-12.3205
▁편히	-12.3216
▁전문대	-12.3217
▁장난치	-12.3223
▁위층	-12.3224
▁혁명	-12.3224
▁에어로빅	-12.3224
▁닭강정	-12.3224
▁힘들잖아요	-12.3225
였다면	-12.3226
▁잘생기고	-12.3226
▁베이비	-12.3226
▁싶냐	-12.3229
▁느끼기에는	-12.3232
▁서로에게	-12.3238
▁외관	-12.3239
▁가급적이면	-12.324
▁프리미어	-12.324
▁납득	-12.3241
땡땡	-12.3241
뿐이야	-12.3243
▁기름기	-12.3252
▁시작했던	-12.3253
▁보디	-12.3254
▁몇백	-12.3256
▁한편으론	-12.3256
▁자세한	-12.3257
▁불꽃	-12.3259
▁키우시	-12.3269
▁만났다	-12.327
▁각각의	-12.3272
▁국회	-12.3277
▁저지르	-12.3279
▁강습	-12.3281
▁먹으려	-12.3282
▁들으려고	-12.3282
▁정신없	-12.3285
▁대행	-12.3287
윌	-12.3288
▁임차인	-12.3288
▁마스터	-12.3292
▁이영지	-12.3293
▁포천	-12.3294
▁요것	-12.3296
▁백수	-12.3304
▁있으십니까	-12.3305
▁추천할게	-12.3305
▁성수기	-12.3305
▁챙겨주는	-12.3311
▁지키기	-12.3312
▁체인	-12.3312
▁진작	-12.3316
▁양치	-12.3316
▁아마존	-12.3321
▁아프게	-12.3323
▁좋거나	-12.3325
▁공짜	-12.3327
▁이랬었는데	-12.3328
▁생활하다	-12.3335
▁미세	-12.3336
▁개정	-12.3338
▁생기는데	-12.3339
▁쉬웠	-12.334
▁무척	-12.3342
▁되셨	-12.3346
▁크리스	-12.3347
슨데	-12.3349
▁아니었으면	-12.3353
▁갑작스럽게	-12.3353
▁하룻밤	-12.3353
▁민감한	-12.3353
▁재밌잖아	-12.3353
▁드라만데	-12.3353
▁부지런하	-12.3353
▁쭉쭉	-12.3354
▁유명해서	-12.3354
▁죄송하	-12.3356
▁살아가야	-12.3363
옴	-12.3369
▁역전	-12.3369
▁대창	-12.3373
▁이루어	-12.3377
▁묘미	-12.338
▁비법	-12.3381
▁고가의	-12.3381
▁외부에서	-12.3383
쨌	-12.3385
▁이래저래	-12.3385
▁쪼그마한	-12.3385
▁친절하	-12.3385
▁간간이	-12.3386
▁민폐	-12.3386
▁출연자	-12.3387
▁어머니한테	-12.3388
▁마세요	-12.3389
룹	-12.3392
▁되어있	-12.3395
▁충격적이	-12.3398
▁배웠었	-12.3399
▁부리고	-12.34
▁넣기	-12.3401
▁먹었거든요	-12.3407
▁멋지게	-12.3414
봇	-12.3415
▁미워	-12.3416
▁의사소통	-12.3418
▁체지방	-12.3418
▁포기했	-12.3418
▁좌절	-12.3418
▁싱글	-12.3418
▁국민학교	-12.3418
▁밀집	-12.3419
▁마당에서	-12.3419
▁목욕탕	-12.3419
▁즉흥적인	-12.342
▁별개로	-12.342
▁떠난	-12.3426
▁부평	-12.3427
▁시끄러워	-12.3434
▁오리지널	-12.3434
▁시카고	-12.3434
▁어떠니	-12.3437
▁어떡하냐	-12.3444
▁멀다	-12.3445
▁700	-12.3448
▁걸린다고	-12.3448
▁바가지	-12.345
▁유난히	-12.345
▁처리할	-12.3455
▁됐건	-12.3456
▁중순	-12.3457
▁놈이	-12.3458
▁진행되	-12.3463
▁자존감	-12.3463
▁뜬금없	-12.3466
▁소외감	-12.3468
▁법률	-12.3468
▁가졌던	-12.347
하시던	-12.3474
▁정돈데	-12.3475
▁혼수	-12.3479
▁찾아보기	-12.348
▁구석구석	-12.3483
▁탐방	-12.3484
▁링크	-12.3485
▁여주	-12.3487
▁담긴	-12.3487
▁미혼	-12.3488
▁않았습니다	-12.3492
▁골라야	-12.3494
▁되시는	-12.3494
▁있겠네요	-12.3494
▁돌아가시면	-12.3497
▁아나운서	-12.3499
▁크로스핏	-12.3499
▁일하다가	-12.3502
▁감성적인	-12.3503
▁시끄럽게	-12.3509
▁됐구나	-12.3509
▁일렉	-12.3514
▁쉬어야	-12.3515
쉐	-12.3516
▁튼튼하	-12.3516
▁막연한	-12.3517
▁끝났어	-12.3518
▁젖어	-12.3518
▁만족스러운	-12.3519
▁밴드부	-12.3519
▁중고나라	-12.3519
▁졸리	-12.3522
▁버리기	-12.3524
▁총무	-12.3526
▁우선순위	-12.3528
▁기획사	-12.3528
▁마찬가지지만	-12.3531
겟	-12.3532
숍	-12.3533
▁노릇	-12.3533
▁모르시	-12.3534
▁개냥이	-12.3534
▁열흘	-12.3534
▁재벌	-12.3536
▁먹을수록	-12.3537
▁재밌었다	-12.3538
▁외적으로	-12.3542
▁바꾸려고	-12.3543
▁여권	-12.3548
▁성심당	-12.3548
▁세세하게	-12.3548
▁멘탈	-12.3548
▁희열	-12.3549
▁그러거든요	-12.355
▁줄어들었	-12.3552
▁여자친구랑	-12.3554
▁상세	-12.3558
▁껴서	-12.3561
▁시원해	-12.3566
▁북한산	-12.3571
고등학교	-12.3576
▁나오던데	-12.3579
▁무궁화	-12.358
▁부모들	-12.3581
▁예전만큼	-12.3581
▁똑똑해	-12.3581
▁뛰어들	-12.3581
▁공모전	-12.3581
▁스윙	-12.3583
▁지나다니	-12.3584
▁알려져	-12.3586
▁작년인가	-12.3594
▁시작했어요	-12.3595
▁활발	-12.3595
▁제왕	-12.3596
▁솔직한	-12.3599
▁놓치면	-12.3604
▁주임님은	-12.3607
▁뿌듯함	-12.3614
욘	-12.3614
▁김종국	-12.3614
▁억압	-12.3615
▁큰딸	-12.3626
▁모이고	-12.3627
렐	-12.3631
▁크로스	-12.3631
▁이효리	-12.3631
▁돌싱	-12.3635
▁놀자	-12.3641
▁때문인지	-12.3642
▁고통스럽	-12.3644
▁내향적이	-12.3649
▁좋냐	-12.3652
▁찾아보면서	-12.3654
▁길고양이들	-12.3655
▁통신사	-12.3657
▁키우려면	-12.3658
▁고충	-12.3659
▁안타깝다	-12.3661
걱	-12.3664
하시더라	-12.3664
하십니까	-12.3675
▁느끼겠	-12.368
▁아울렛	-12.3681
▁견주	-12.3681
▁보름	-12.3681
▁맨몸	-12.3681
▁썰어서	-12.3684
▁풍부하	-12.3686
▁사무실에서	-12.3691
▁배움	-12.3691
▁사람끼리	-12.3698
▁잃어버렸	-12.3698
▁이루어질	-12.3698
▁킹덤	-12.3698
옵니다	-12.3698
금융권	-12.3709
▁미칠	-12.3713
▁헤쳐	-12.3713
▁프로그래밍	-12.3714
▁주짓수	-12.3714
▁저렴해	-12.3715
▁포함되	-12.3717
▁적합한	-12.3724
▁않으시	-12.3725
빼	-12.3728
▁송강호	-12.3731
▁해봤었	-12.3731
▁숯불	-12.3731
▁아시다시피	-12.3731
▁만족하면서	-12.3736
▁현명하	-12.3739
▁명곡	-12.3739
▁매콤	-12.3742
▁힘들었었	-12.3744
▁득점	-12.3745
▁친밀	-12.3746
밋	-12.3748
▁편안함	-12.3748
▁박지성	-12.3749
▁맞춤	-12.3749
▁서랍	-12.3751
▁결혼한다고	-12.3753
▁예배	-12.3755
▁비교하면	-12.3759
▁개설	-12.3759
▁보시나요	-12.376
▁어색해	-12.376
▁먹기에는	-12.376
▁좋아하신다고	-12.376
▁악보	-12.3761
▁미세먼지	-12.3765
롬	-12.3765
▁양꼬치	-12.3765
▁속상한	-12.3765
▁안전성	-12.3766
▁농협	-12.3766
▁강렬	-12.3766
▁내려와	-12.3767
▁중요시하는	-12.377
▁틀어놓고	-12.3772
▁이야길	-12.3773
▁그만두게	-12.3773
교시	-12.3773
▁법적인	-12.3773
▁문젠데	-12.3775
▁초중고	-12.3775
▁학식	-12.3778
▁서버	-12.3781
▁얘기하잖아	-12.3782
▁민간	-12.3786
▁지나가면	-12.3789
▁오래오래	-12.3798
▁후유증	-12.3798
▁개입	-12.3803
▁갖기	-12.3803
했듯이	-12.3804
▁응원해	-12.3813
닛	-12.3815
논	-12.3815
▁한순간	-12.3816
▁비슷하다	-12.3819
▁청결	-12.3819
▁맞더라고요	-12.3826
▁갔는지	-12.3829
▁당황스럽	-12.3829
▁적어지	-12.3835
▁키움	-12.3836
▁산다면	-12.3839
▁축소	-12.3841
▁회비	-12.3847
▁김광석	-12.3849
▁이비에스	-12.3849
▁매운맛	-12.3849
▁추리닝	-12.385
▁세운	-12.3852
▁조회	-12.3853
▁유아인	-12.3858
▁중이거든	-12.3859
▁악마	-12.3862
▁피파	-12.3864
▁보육	-12.3864
▁2020	-12.3866
▁이기적이	-12.3867
▁반려묘	-12.3867
▁보려면	-12.3871
▁지역마다	-12.3873
[...]
